node {
  name: "global_step/Initializer/zeros"
  op: "Const"
  attr {
    key: "_class"
    value {
      list {
        s: "loc:@global_step"
      }
    }
  }
  attr {
    key: "_output_shapes"
    value {
      list {
        shape {
        }
      }
    }
  }
  attr {
    key: "dtype"
    value {
      type: DT_INT64
    }
  }
  attr {
    key: "value"
    value {
      tensor {
        dtype: DT_INT64
        tensor_shape {
        }
        int64_val: 0
      }
    }
  }
}
node {
  name: "global_step"
  op: "VariableV2"
  attr {
    key: "_class"
    value {
      list {
        s: "loc:@global_step"
      }
    }
  }
  attr {
    key: "_output_shapes"
    value {
      list {
        shape {
        }
      }
    }
  }
  attr {
    key: "container"
    value {
      s: ""
    }
  }
  attr {
    key: "dtype"
    value {
      type: DT_INT64
    }
  }
  attr {
    key: "shape"
    value {
      shape {
      }
    }
  }
  attr {
    key: "shared_name"
    value {
      s: ""
    }
  }
}
node {
  name: "global_step/Assign"
  op: "Assign"
  input: "global_step"
  input: "global_step/Initializer/zeros"
  attr {
    key: "T"
    value {
      type: DT_INT64
    }
  }
  attr {
    key: "_class"
    value {
      list {
        s: "loc:@global_step"
      }
    }
  }
  attr {
    key: "_output_shapes"
    value {
      list {
        shape {
        }
      }
    }
  }
  attr {
    key: "use_locking"
    value {
      b: true
    }
  }
  attr {
    key: "validate_shape"
    value {
      b: true
    }
  }
}
node {
  name: "global_step/read"
  op: "Identity"
  input: "global_step"
  attr {
    key: "T"
    value {
      type: DT_INT64
    }
  }
  attr {
    key: "_class"
    value {
      list {
        s: "loc:@global_step"
      }
    }
  }
  attr {
    key: "_output_shapes"
    value {
      list {
        shape {
        }
      }
    }
  }
}
node {
  name: "Const"
  op: "Const"
  attr {
    key: "_output_shapes"
    value {
      list {
        shape {
          dim {
            size: 1691
          }
          dim {
            size: 112
          }
        }
      }
    }
  }
  attr {
    key: "dtype"
    value {
      type: DT_FLOAT
    }
  }
  attr {
    key: "value"
    value {
      tensor {
        dtype: DT_FLOAT
        tensor_shape {
          dim {
            size: 1691
          }
          dim {
            size: 112
          }
        }
        tensor_content: "\331\217\214:\032\t\2059\200\360\244:lY<;\343\017\3529D\203\313:\025\377\275<\000\000\000\000\000\000\000\000\000\000\000\000\3230[=\000\000\000\000\376\211G;5\3078<\2643\323;=r\320;\215\326y;Q\346[;+Ar;\205\375\037;5\010\225;p\025\025=~6\351<\324\277C<\311\336@=\313\034\375;#\220\203<\000\000\000\000\024H+<Kzz<\000\000\000\000\244c\342;$}\255<\204\231\224<|\026\324;+\314\013=V\220\0029C\300N9\327\025\332<\000\000\000\000\000\000\000\000}\217\246<\000\000\000\000\000\000\000\000\203\'\307<\000\000\000\000\000\000\000\000\000\000\000\000U\330\203<x\231-=\000\000\000\000 \n\236<\000\000\000\000\000\000\000\000\000\000\000\000\251\272\373<\306_\n=\\\022\021=8Q\t=k\333\032=W\207!=\234\236\3419\334Y\3759&R\001:+\375\03090\033&9\337A&9\223\370\243<\003\217\241<]O\220<\275\275\225<\031$\225<\000\000\000\000\000\000\000\000\000\000\000\000\3460\316;\236\253\321<#\nq<i=U<\372\205\376;[_\345:\277\204\355;\375\271Q<\350\257\016<\375(\314;\207\372 <\177L`<UUp<\220\314\007<\335\r\347;d\270(<\275\'\251<\316| <\372O4;E\200\202<\270f\267;e\252\355;+\374\033<\367\216><s\217^<u\205!;Q\234~;\000\000\000\000\'\361M<\000\000\000\000\356\263\361<\000\000\000\000\000\000\000\000\000\000\000\000\000\000\000\000\000\000\000\000\230\230\014=Z\267*:\354\225+;\354M\001;\255\342\261;\007\000\2049\016\230);y\254\312<\005\250\017=\000\000\000\000\357\324p<\255\315\351:\000\000\000\000\000\000\000\000\000\000\000\000?q};\203\263\214<\006\244\250<\343\350\305<\000\000\000\000\250\374\327<\322{\034=\345,\006=\332\352\037=\324\277\303<\270R(<\023\336\027<?\320\354;h\374\222;\024H+<\000\000\000\000\000\000\000\000\000\000\000\000\000\000\000\000\000\000\000\000\000\000\000\000\240\002t:\023\017e92\365\2019\327\025\332<\000\000\000\000\000\000\000\000}\217\246<\000\000\000\000\000\000\000\000\203\'\307<\000\000\000\000\310X\337;\226M\272<4\t\242<\260\000,=@\267\256;Z\377\304<I\232\362<QN\377<\213\220\005=\315\266~:\272\005R:\0320\\:\324\022\006=\3652\027=\211\266\035=C\343\022=\220\264\033=9\373A;Xm\217;}\271\233;\301\335\233;\027`\013=/\247\325;U:\337<\0165\312<L\246\325<\201\033F:\000\000\000\000\000\000\000\000\353\363\244:\356\304\022=_c~;\032\352\001<\017\355\314;-J\252; \244N<qH\233<\003\231\311;\367=\247;\003\266\r=E\014\r<g\215\261;\215\217\346;y8\326;\371\325\021<\0042\276;\360y\232;\313#\216;\257M\r<\212~\032<\026y\332;\2041\305;\267^\215;\260\356\331<\r\344\227;9\210|;\000\000\000\000\000\000\000\000\000\000\000\000\000\000\000\000\000\000\000\000\000\000\000\000\000\000\000\000\000\000\000\000\000\000\000\000\034\267\250; \361\243<>\035\207;\241\360\026<\352FQ<\357)/<\253\321V<\3357\222<\203\234\\<\244\300\257<\000\000\000\000\232\013\255:HF\030;\031\307\r<\314\301\345;*\232\355; \330\366;AO\300;\006I6<\367\320H<\256\341\331;\307\213\306<\023\376\177<H\234t<\203\t\305<\245\364\241<o\312\357<_\314\233<\2361\300<3\230Q<oK\355;\262\375\375;Yy\3269\317\340\214:\360>\3419\342\354H:\"\312\355;\023\223\253;(|\2239\327\025\332<\000\000\000\000\000\000\000\000}\217\246<\000\000\000\000\000\000\000\000\203\'\307<\000\000\000\000\360\036t<\302\200\021=\277U\236<u\027+=`{\2179`\345\276<*Cy<<(\203<WG\212<\362\304\363<\247\377\005=\006|\014=l<\010=D\243\031=\275A =\275i\026;\223\346(;9\373A;\300{\3459\310(\3719W\322O:\344\303\304:;j\273:\277h\014;p\306\004;\n%\020;2\200C:\000\000\000\000\000\000\000\000\3259\0029\000\000\000\000\365\370\360;\331gJ<\214\245\204<\307Q\261<\007\354\212<S\2015<\306\026\224<\303\235\215<\311\337\014=/\256\005<&\334\252<;\0337<\027d\231<\031\024r<\221Ah<eF\201<\264yy<\t!\333:\r\270}<\344~x<3F\245<\267\306i<\262R\315<\345\225\251<>\n\203<\000\000\000\000\\\032C:\000\000\000\000\000\000\000\000\000\000\000\000\000\000\000\000\000\000\000\000\000\000\000\000\000\000\000\000\000\000\000\000\313U\3578M9\2358\014\302\032:\356k\2479\250\243\0027\244\005\002:\354\273\005=\273%l=\000\000\000\000\000\000\000\000\000\000\000\000\000\000\000\000\000\000\000\000\000\000\000\000\000\000\000\000\000\000\000\000\000\000\000\000\016\340a>-\227\275<\000\000\000\000\000\000\000\000\000\000\000\000\000\000\000\000\000\000\000\000\000\000\000\000\000\000\000\000\000\000\000\000\000\000\000\000\000\000\000\000\000\000\000\000\000\000\000\000\000\000\000\000\000\000\000\000\000\000\000\000\000\000\000\000\000\000\000\000\000\000\000\000k\217v8\327\025\332<\000\000\000\000\350s\211=\000\000\000\000\000\000\000\000\000\000\000\000\000\000\000\000)\210K=<\344\n<\003U\274<\302\010\222<\327B\037=\315\252\227;=\336\241<\2468\030:\370:\3009\363!\3119\033-\243;j\344\241;i\272\251;\000\316\217<\r\255g<\321Iy<^\306\016=*X\036=\260\246!=32\027=\336($=\031O$=<S\000=\305V\013=\356&@=L\252N=\365\362I=\000\000\000\000\000\000\000\000\000\000\000\000\344\'W<W\311Z<|\312a<\366\014\313<I\242\025<e\303\321:\360\204\261;\316C\266<\200\303z;4\265\235<Eh\252;a\027\274<L1a<\n9\240<\333\243\217;\265\307B<Q\241\366<\316\351\212<\032e\263<\317dn=\300\237Z<\241\314\224;\234\014k<e\307y<]\013\026<kUJ;\000\000\000\000\000\000\000\000\000\000\000\000\000\000\000\000\000\000\000\0000\267)=\000\000\000\000\000\000\000\000\000\000\000\000\000\000\000\000\000\000\000\000#\000\363;\225\265\373:\024\003\251;g4f;\356\213q:xL_;!\312\340<-O\2779\000\000\000\000p\365&=\000\000\000\000\000\000\000\000\276\333\265:\000\000\000\000\000\000\000\000\360\371\275;\266\001\271<\357\\\257<\211I\177=Y\263\210<\242\323\207<\235\327\251<\231\351r<c\337\355;C\256\177<N\257f;\244\317o<\316s\247;\276#P<[\255\016<\004z\303;\265\364\000<X\264\264:\000\000\000\000\000\000\000\000\210\007y<\240;$<|gE8\327\025\332<\000\000\000\000\000\000\000\000}\217\246<\000\000\000\000\034\230\033=\000\000\000\000\000\000\000\000k\023[<e/\367<L1n<\3241\037=\244(\210<\223a\220<h\361\353<fM\374<1x\003=\027\301\366<\347\225\330<\022a\227<\246\362\306;\222\023\234;\272\211\223;d\321\316:\301\311\223:9\373\301:\000\000\000\000\000\000\000\000\000\000\000\000k\315\272<\207[\330<2\256\246<l\374\262<\222\331\255<\034v\026:\000\000\000\000}\2460;\313\231\234;\215\027\277;2W\243<\rp\340<\231\232\010=|S\016=\217\006\343<[;\337<dv\007=6\311\377<>\204\237<A/\314<\216\205\004=1\225\337<\352Q\t=\372\355\001=\3442\265<m\224\377<pA\344<X\345\241<3\320\352<\305\340\374<dO\000=\216\204\355<bc\247<)\346\r=b\214\357<\000\000\000\000?\305\214<@\t\354;\000\000\000\000\000\000\000\000\000\000\000\000\032r\266<\000\000\000\000\000\000\000\0009,\240<\275b\254<\r\352\363<V\313\034;lY\274<\336\226\273=\203%?=\300\232D<\000\000\000\000m\t\346<\000\000\000\000*3\314:\241\'\263<\266\330\234<\0062C<_EH<\233\352\251;F\370\0049\000\000\000\000[4\241:\'M*9\006\2022;\215\272\236;\274s\t<\036&\363;q\255\027<^+_<\341Q\203<h\372 <\275\rb<\272B5<\2238]<K\257v<wor<V5w<\305i\260<\351qq<\373[\022;\215\000U:\000\000\000\000\000\000\000\000\000\000\000\000}\217\246<\000\000\000\000\000\000\000\000\203\'\307<\000\000\000\000\256_\355:al\302;\r\034\252<\205%\026=\026>\024;\240\346\302<\243/\347</D\336<O\t\335<\362\273\372<\302\323\t=\221\177\020=\223\372\341<\346t\346<\3155\346<o\313\342<\017\010\374<\226\362\377<\356\353[;\025\307n;\261\376n;\"|\035<\273\276&<\317\352E<X\251><\030\021@<\013\006-;-\301~;\2723\004<\3424\t<\016\256\276;6$p<\240\361G<\335\023c</\t\362;\247\3226<\231\006\014<\020\310\002<\275\347\035<@\221\341<>^\017<\264\241\006<\330\321%<\313\322\n<\222V\002<\244p\014<J\\\023<\001\363!<\014%\013<u\270@<T\2272<\027\355\014<(\271\037<}\342\266<\217\346\t<\245\257\002<\000\000\000\000\201\031z<@V,;\333\243\000;\000\000\000\000\000\000\000\000\313\331\237;\000\000\000\000\000\000\000\000\241.\327;\242\032\265<\217\257\370;\261\306\033<\345!{:\005\201\016<\330\254\2079\321\220\272<\000\000\000\000\000\000\000\000\273\004\014=\215 \022<\000\000\000\000\000\000\000\000\000\000\000\000\000\000\000\000\000\000\000\000\000\000\000\000\000\000\000\000\250D\010>6\3753=\000\000\000\000\000\000\000\000\220\345G=\324\277\303<\000\000\000\000\000\000\000\000\000\000\000\000\000\000\000\000\000\000\000\000\000\000\000\000\000\000\000\000\000\000\000\000\000\000\000\000\000\000\000\000\000\000\000\000u\302d<\236\004\0048rI\3548\327\025\332<\000\000\000\000\000\000\000\000\000\000\000\000Y\307\247=\000\000\000\000\203\'\307<\000\000\000\000d=f<\010\322\367<\005\260Y<l\037\023=\340\230\220<s\263m<?\343\305<o9\273<\017\026\262<\253\360\321<\r\016\336<07\344<f?\330<\276<\345<\001\301\350<\336B\001<\250\022\370;\302O\342;\300{\345:be\344:\223\232\344:C-\203;\225z\212<\236\365o<>Bd<\000\365_<c\242w<\000\000\000\000\000\000\000\000\254\244\032=\000\000\000\000;=\022<\2222\225<\242j\371<\246&b<WTY<\213\204\205<\\Ru<\337\251\347<\315^\271<\334\307\325<\267m\204<\251\272L<I\273\202<\235\267\220<\302\222\351;\277\370\343<x\250C<\373\000\035=a\007B=#R\272<\2031\305<\225\250[<\370\350\253<\032$Z<\240\255#<\000\000\000\000\000\000\000\000\000\000\000\000\000\000\000\000\000\000\000\000\000\000\000\000\000\000\000\000\000\000\000\000\000\000\000\000\000\000\000\000\254\300.9 \017\010:\237\364];\356k\2479\341\260x:\341\274x9\325\225\233<\000\000\000\000E\357\354<\000\000\000\000\000\000\000\000\000\000\000\000\000\000\000\000\000\000\000\000\000\000\000\000\000\000\000\000\000\000\000\000\000\000\000\000R5\306<\000\000\000\000+\347\266=\000\000\000\000\265\021\332<s\213\325<\000\000\000\000\000\000\000\000\000\000\000\000vo\310<\000\000\000\000\262\357\314<\025|\257<@:\271<,9\242<\000\000\000\000\000\000\000\000\341^\246<\343\205\030<]SA9\327\025\332<\000\000\000\000\000\000\000\000\000\000\000\000Y\307\247=\034\230\033=\000\000\000\000\000\000\000\000,xc;\257\270\300;\274\301\240<\356\006\023={\343\202;\332\224\277<\270\317\263<\3228\271<\343\330\302<\027\312\357<\210\237\001=\020\236\t=\332\335\305<7\013\331<3\360\344<\275i\226<^\237\243<\210m\254<Xm\017;\312W\021;\301\335\033;]\375 =!\246\254<j\036\031=\261\324\013=\002\\\016=\302\022\207<\000\000\000\000\000\000\000\000\000\000\000\000\000\000\000\000\024\317(<\n\022q<9Uo<\313\265v<\230\314\345<\262\254\211<}\332j<#.S<\340$~<v\203\310<\344\254P<<\036\271<\306\315p<\333,\335<\302EN<li\210<\364Q\307<\234\342\246<<\026\021=\256TS<\255\376\242<\227\213A<\256\254h<\330\370m<\336\2162<\000\000\000\000\000\000\000\000\000\000\000\000\000\000\000\000\000\000\000\000\000\000\000\000\000\000\000\000\000\000\000\000\000\000\000\000\000\000\000\000\344\273\204<]\310\244:\352m@;g4f;Z\227v=\320:q=\373\035Q<\264\003F=\355\246\227;\000\000\000\000|_\2448\002\036\330<r\024\243<\213\017\232<\023\206\252<@\326E<\016B\235<d\2703<\312N\215< \317\275;\317\274\264;R\214{:\322\277\304:\000\000\000\000\000\000\000\000\000\000\000\000\000\000\000\000\000\000\000\000\000\000\000\000\0058\3238\362v\254;~+|<\350\177\254<\270`,<\242\263\303<\037\037\332<U\250\016;\306o\314:\000\000\000\000\000\000\000\000\000\000\000\000}\217\246<\000\000\000\000\000\000\000\000\203\'\307<\000\000\000\000\267U\013<\221\371\275<wU\213<\024@\017=E\2516<\273j\212<\204q\';\01660;\037_8;`\313n;\262\243\207;\020\236\211;\324\022\006<\"\\`<\374\254\325;\200\246\024=\337\353&=?h*=i\327\013=Yk\002=\036\200\350<\031\310-<\250]><.q0<v\0222<\31032<\r6H:\177|m:f\024\017:\032V\r<\252%\";{\177\203<\264\314S<1J\022<\322 \262;\270\271\006<\311\335(<\001\250\364;>?\013<\351\315\206<?\270R<\020r\375;\200a?<X\377\001<\247L\355;L\311\036<P\361\021<\361\277\005<\220{a<\225\212\326;8\301S<\337:\002<\343\014B<\264\226\206<C.\311;\256\345\n<\000\000\000\000\210N\202;VdZ:\000\000\000\000\000\000\000\000\000\000\000\000\361\032\323;\315Z\023;\000\000\000\0006\371\027<mH\23394!\0219V\313\234:\356k\':9]\000<\253\321\3269!Q\234<\273%l=\000\000\000\000\000\000\000\000\000\000\000\000a\010K<\000\000\000\000\000\000\000\000\000\000\000\000\000\000\000\000\000\000\000\000\000\000\000\000\000\000\000\000\000\000\000\000\000\000\000\000\273<\r=J\200\374<\'C\367<\000\000\000\000\000\000\000\000\000\000\000\000\000\000\000\000\014[X<oK\355<[1\313<XyV<i\326\273<\357>a<\250\261\026=I\217(=\000\000\000\000\334;\2258\327\025\332<\000\000\000\000\000\000\000\000}\217\246<\000\000\000\000\000\000\000\000\203\'\307<\000\000\000\000\236\374_<\241n\362<\036\330\247<p/\017=\267c57U\035\260<-\263\360<\264M\375<^\204\004=\320\376F;4\206\343:k}7;\006\231\317;\274q\215;\037\350\013<\000\000\000\000\000\000\000\000\000\000\000\000\243\2545<}\271\233;\261\376n;o\262\245<\tp\211<\250\351\205<\365ws<\263\201}<\000\000\000\000\000\000\000\000\000\000\000\000\3249\002<\000\000\000\000\013R\007<&\350X<\352\327C<!\313\257:\025E\376;\207\236\315<4t\021<\252tT;I\252i;Bs\232<\027\261\224<]\355y<<\\\233;\214\022\342:+\321\347;\277\257\360;;\\9<\203\004\341<\226\022\335:\342\273\237;\004\030\342;/,\003=\2709\366;)\356t;/71;\000\000\000\000\000\000\000\000\000\000\000\000N\373\344=\000\000\000\000\000\000\000\000\000\000\000\000\000\000\000\000\000\000\000\000\000\000\000\000p\227\32784!\0218\320Zt9\000\000\000\000\232\nH9\3344@:\261\317\240<\000\000\000\000;\337z<\000\000\000\000\022L\316<\000\000\000\000\000\000\000\000\000\000\000\000\000\000\000\0001\265\334;\000\000\000\000\277\325\350;\355`\300<\243\223>=\000\000\000\000\000\000\000\000\204\032\215<\000\000\000\000\000\000\000\000\000\000\000\000\000\000\000\000\000\000\000\000a[\265<\031\233\004<\013\031c<\000\000\000\000\227-l=\317\276{<G\220\340;\233M\327;}\037\251:\246/z8\327\025\332<\000\000\000\000\000\000\000\000}\217\246<\000\000\000\000\000\000\000\000\000\000\000\000)\210K=b#\0379Z1\035:\360\206\246<z\266\016=\000\000\000\000\220u\335<o\321\332<\244F\346<\253\360\360<\032\t?:\272\005R:\0320\\:\3678\345<5@\001=\270\321\006=C\352\255;\232J\303;\245^\307;pn\300<\374\241\317<W\322\317<\311\235\255</\222\247<H\251\302<3}\304<\352\366\300<\000\000\000\000\000\000\000\000\000\000\000\000\355\213\021=\253\000\024<\263\317\344<_o\312<00\037<I\274\006<\255\347\210<\201J\341<\276\241T<L\272.<\260\3777<w\367\231<\261B\237<\253\321\226<\257(\216<TH\002<l\325[<\002\224l<^vb<\351[\371<j\350R<`x\204<oI#<\3412\203<\353\033\223<f\332\022<\260c\254;\000\000\000\000\000\000\000\000\366\033\211=\000\000\000\000\000\000\000\000\000\000\000\000\000\000\000\000\000\000\000\000sc\375=\000\000\000\000i\264w;>G4;D\025W<\356k\247:\003C\274;zn\355:\000,\310<\000\000\000\000\000\000\000\000\255\005(=\000\000\000\000\000\000\000\000\000\000\000\000\000\000\000\000\000\000\000\000\000\000\000\000\000\000\000\000\000\000\000\000{\307\201<\017k+<\000\000\000\000\332\255?<\023td;\377\310\'=\242X4=\034\364X<\334\365\214<&|\235<\024H\253<z\005!<S\327\267;T\217r<\300\362\251<:\313K<!\312\265;\3164\352<\320=\256=e\005\2079\327\025\332<\000\000\000\000\000\000\000\000}\217\246<\000\000\000\000\000\000\000\000\000\000\000\000)\210K=tR|<^\353\017=\367\3247<\365\033\016=\237\276\321:\220>g<\007\025\302;\2038\270;v\331\226;\315\266\3768\000\000\000\000\000\000\000\000\223\372\341<\340\203\036<Ss\016<H\331\001=\374t\263<\252\202\264<\203v\006=\314*\274<\023q\270<?I\237<\352\351\243<S\371\211<\035\275\227<.\346\221<\014BT;\000\000\000\000\0034\371;3\2740;\272\303\225<\r5\240<\234\241\323<*3\331<\215\346\330<\005\373\301<\233\236\373<\037-\341<\030!\322<\025\245\231<\336\007\300<5\326\363<\212$\274<\201\364\330<,!\326<\244\211\230<\367\263\301<\033\363\325<\340\233\270<\325u\303<D\025\305<\361\353\334<\205\301\311<\253\033\266<U3\340<\201\317\001=\000\000\000\000\217\2050<\000\000\000\000\000\000\000\000\000\000\000\000\000\000\000\000\000\000\000\000\000\000\000\000\000\000\000\000\227\005q<\227\264s<\200i\2658\221R\2028\356k\2479\213/\2566s\263\037=\305\3350<\000\000\000\000\000\000\000\000\000\000\000\000\3230[=x\301\033<\200\031\005<]\317\013<\242\315\037<(\030(<\342\034.<\264\010E<\311\246-<}K\365;\303mj<:Zy<\364e<<\346FM<\021\017W<\335\215D<\356\3004<z<><\346\263#<\024\202B<\240\233\027<b\214-<M-\n<\325\2071<\343\224\017<\235\326A<\000\000\000\000@\275\3105\000\000\000\000\000\000\000\000\000\000\000\000\000\000\000\000Y\307\247=\000\000\000\000\203\'\307<\000\000\000\000-\370\2325\371\374\2316_\245\200<\261\222\014=\000{\3655\306<v<\000\000\000\000\000\000\000\000\000\000\000\000\362\273\372<\302\323\t=\221\177\020=\242s\004=\273^\025=#\316\033=\220\226\227<`8\252<c\306\255<=0K<\034\234\\<|\317\\<\204M\013<XD,<FC6<$\2548<a\2306<\000\000\000\000\000\000\000\000\000\000\000\000\346\212W<\342\317\002<s8\246<\274y9<Jl\216;\001\334\2509v\327w;nl\335;\374\373\313;\365~p;\374fe;\3307v<\000\000\000\000\022\345?<\014\340\230;\221\234\253;\360\3225<\266$\374;\207-\327:\230\253\210<#Dh9K\242\233<C\025\225;b\342\031<H\265b<b\270\307:\214\320\030<\000\000\000\000\000\000\000\000\000\000\000\000\000\000\000\000\000\000\000\000\000\000\000\000\000\000\000\000\000\000\000\000\000\000\000\000V\223\203<\016,\3039\245S\212:\343\270\n<\345!{:Td\2709\330\254\2079\204[\223<\000\000\000\000\017r\305<\000\000\000\000\215 \022<\000\000\000\000\177\247\225=h\225\212<\307f\236<\000\000\000\000\000\000\000\000\275\354\244<\000\000\000\000\000\000\000\000\000\000\000\000\000\000\000\000\000\000\000\000\000\000\000\000\000\000\000\000\000\000\000\000\000\000\000\000\000\000\000\000\000\000\000\000\270\333;=h\334\240<\000\000\000\000\000\000\000\000\323Q\262<\335\020\237<u\302d<\303;\3024rI\3548\327\025\332<\000\000\000\000\000\000\000\000}\217\246<\000\000\000\000\034\230\033=\000\000\000\000\000\000\000\000\273\374\363<\277\207\000=\335QT<x>\014=5n\365<\005Dk<e\032\256<b*\212<\346v\346;a\324\347<\204]\312<\234\324p<.\274^<\315\237\375;\361\314\";!\003\r;\n=\350:\352\210W:+\375\030:\310(\3719\337A\2469\344\303D<md\355;\330q\270<\340V\255<\201g\266<\000\000\000\000\000\000\000\000W^\221<\000\000\000\000\000\000\000\000\017\030\244<\256\025\200<3#)<X\366\255;\252{\267; R\022<\"\247\363;\353\266\261;\263(\216<\032\3343<-\014\177;\2455h<U[\017<\026\210\324;\nl\014=\276\271&<\331*\317;u\021\247<\222\014L<hlk<\000\2024<\202y^<B/f<gm\221;\377s\305;\000\000\000\000\000\000\000\000\000\000\000\000\000\000\000\000\000\000\000\000\000\000\000\000\000\000\000\000\000\000\000\000\000\000\000\000\000\000\000\000\211k\241>\312\004+<\363,\253<\002j\205<\241\206\2157\313\305}=\r\351\365;\000\000\000\000\000\000\000\000\000\000\000\000\3230[=\204\3543<\256\004\021<9\003\325;\000\346;<6\312\330;V\353\001<\270%\311;r\207\002<(\202\326;v\242t<\002\325\201<\276\233\217<\005\353v<\2117\210<\2673\234<RM\213<@F\020<z\346\320;\242A\350;\236`\206;_/\231;Ku\246;\356?\327<\302\257<<b\342A=\351\257\3171w}=6\327\025\332<\000\000\000\000\350s\211=\000\000\000\000\000\000\000\000\034\230\033=\000\000\000\000\000\000\000\000\0334\302<\350U\023=\354\255\212<\377\\\013=\007\307\226<2\022\220<\2468\030:P\'\000:\363!\311:\205\320\352;\321\003\014<m@E<\341\r\273<=W\271<\213\022\244<\344?\013=\245\331\r=\332q\r=32\027=m<\025=\001\311\005=\000\000\000\000\000\000\000\000\250\260\2308^xj8B\363\2158\023^\0048\000\000\000\000\000\000\000\000\000\000\000\000\000\000\000\000\000\000\000\000\000\000\000\000l\212\3047;\263\2657\000\000\000\000\000\000\000\000\000\000\000\000\000\000\000\000&\212\0278\035\201\2246k\355{7\000\000\000\000\377q[8\000\000\000\000\000\000\000\000\225\023\0037\000\000\000\000\000\000\000\000\000\000\000\000\000\000\000\000y\025*8\000\000\000\000\201E\2278\000\000\000\000\000\000\000\000\000\000\000\000\000\000\000\000\000\000\000\000\000\000\000\000\000\000\000\000\000\000\000\000\000\000\000\000\000\000\000\000\000\000\000\000\000\000\000\0006\357\256<\374\372\005<\260V\2739\345!{:\263ai:\334#9;D\020\245<\371\r\255;\376\376\317<\000\000\000\000\314+\326:x\224\353:\3316\262<\275\2711<,\227\202<L\331\253<\375\244\253<\306\270q<\250\270\307<\302\331E<N\322#<\017\331L<\000\000\000\000,s\017;k0\232;\201\035\213;\000\000\000\000\000\000\000\000\343\t{;\311\252\211;\203KN<\366\332\370;\3227\210<\242X\243<|\"\351:\253}m<\232\253u:>e\2179\000\000\000\000I:\023=\000\000\000\000}\217\246<\000\000\000\000\000\000\000\000\203\'\307<\000\000\000\000\"(\311<X\357\302<\366\201\226<!\031\013=\010\233\267<Zi\252<\025<\346<\177@\322<yw:<\027\323\350<0U\276<\035\266w<\306\345`<\3652\027<\037\350\013<\026\020\024<1\274\270;\222\265\006<v<?:0\033&9\000\000\000\000\3465\234<\253h\226<R\221\242<\243m\233<\216d\240<\364x5;\000\000\000\000\'\017\325;\363n\263<\315\246\231;H\373\215<A\032u<|\001m<\321\307\373;\311\264{<\310\205\303<\246c4<3\025<<L\rh<\216A\267<\224\3027<_6\225<\223\333M<\"\rq<\022}W<\013\345\207<\226>=<\272^\304<\270/\014<.k_<\252\"t<\007\023\220<j8\234<\306\006\n<\301t\232<\000\000\000\000\006ab<\000\000\000\000\000\000\000\000\000\000\000\000\000\000\000\000\000\000\000\000\000\000\000\000\000\000\000\000\000\000\000\000_\337\207:|\235o;\371\267\354<\000\000\000\000\3400\350:?\373\2229-\024\234<\000\000\000\000E\357\354<\000\000\000\000\000\000\000\000\000\000\000\000\000\000\000\000\277\330\177<}7\222<\000\000\000\000\000\000\000\000\000\000\000\000\000\000\000\000\000\000\000\000\000\000\000\000\000\000\000\000\000\000\000\000\023\261\264=\0208\302<\000\000\000\000\000\000\000\000\000\000\000\000\000\000\000\000\000\000\000\000\333\233\271=\000\000\000\000\000\000\000\000M\232\244<\000\000\000\000p\306\214;\364$.>\000\000\000\000\327\025\332<\000\000\000\000\000\000\000\000}\217\246<\000\000\000\000\034\230\033=\000\000\000\000\000\000\000\000^>,=\037\3532=\3644\247<,J\n=\221\311R:E\314\350<-\263\360<\003N\376<u\n\005=;\275\371<\276G\t=1\307\016=\376h\332<\000\000\000\000\361\314\2429\000\000\000\000\000\000\000\000&R\001:\300{\3459\310(\3719W\322O:\247\346\323<8Y\244<\204\210\330<\267\301\302<\370\365\307<\000\000\000\000\000\000\000\000\263/\006=\205T><\271\212\301<\356k\303<\207m\324<\"\274\320<6\301\320<\216\210\324<s\234e<\336\025\361<}\007\257<RK\340;G\004\351<J\222\260<0\007\010=\332@\312<\346C\217<J#\237<\312\232\251<\222\363\261<\330\320S<,\333\004=\303.\355<\014\007\313<\013\336\254<S5\373;f\\\311<\'\004\367<\000\000\000\000C\223\016=\000\000\000\000\000\000\000\000\000\000\000\000\000\000\000\000\000\000\000\000\000\000\000\000\000\000\000\000\000\000\000\000\251\201\24084!\02185\347\":\000\000\000\000\213/\2566\020\334E:\257\225\302<\374\347\327:\000\000\000\000\000\000\000\000\232\355T=\000\000\000\000\000\000\000\000\272\016\276;~<\331<\000\000\000\000\000\000\000\000\000\000\000\000\000\000\000\000\000\000\000\000\000\000\000\000\000\000\000\000\000\000\000\000\000\000\000\000\000\000\000\000\000\000\000\000\000\000\000\000&|\035=\342,\260<\020na=\376t%=\000\000\000\000\023\364\230<y\215\364;\231W\010=\000\000\000\000\375q\2457\000\000\000\000\327\025\332<\000\000\000\000\000\000\000\000}\217\246<\000\000\000\000\000\000\000\000\000\000\000\000)\210K=r\200Z<\317\226\340<\003\240q<\275\306\t=;\223\245<\021\366y<\350\275\310<\034A\324<0w\320<=\352\326<\376\335\333<\331\335\321<SG\363<\016\010\000=\352\000\003=\3656);e\003>;9\373A;\300{\345:\310(\371:\223\232\344:\252\\w<uo\016=?\370\341<\374\312\360<\251\233\350<\000\000\000\000\000\000\000\000\000\000\000\000[c\215<\000\000\000\000\277#\311;\323T\201<\361\275k<\030\322\r;\r%8<\n\2324<\345\231\203;\321\024\323;l\034\327;6`7<\265\233\377;\010\372\216<\316>\026<\201\205\\<V\346b<\224\221g<:\017\327;\337\2227<\322e\261;\"\306d<TEc<\362\367\304;\227\023\254<q\273\207;\031j\371;\000\000\000\000\000\000\000\000\000\000\000\000\000\000\000\000\000\000\000\000\000\000\000\000\000\000\000\000\000\000\000\000\000\000\000\000o\353X=)rG8\035}\177:\323\342\205;\000\000\000\000\250\243\0028u\34648\343S\004=\000\000\000\000\000\000\000\000\000\000\000\000\3230[=\000\000\000\000\000\000\000\000\000\000\000\000\000\000\000\000\000\000\000\000\000\000\000\000\000\000\000\000\000\000\000\000\000\000\000\000\000\000\000\000\000\000\000\000\000\000\000\000\337\317\222>\000\000\000\000\000\000\000\000\000\000\000\000\000\000\000\000\000\000\000\000\000\000\000\000\000\000\000\000\000\000\000\000\000\000\000\000\000\000\000\000\000\000\000\000\000\000\000\000\000\000\000\000\000\000\000\000\327\025\332<\000\000\000\000\000\000\000\000}\217\246<\000\000\000\000\034\230\033=\000\000\000\000\000\000\000\000\000\000\000\000\000\000\000\000s\314\251<\022\344\006=\000\000\000\000\356\003\267<\255\177M;WBX;1Fb;\033-#<\344d3<\301\023<<8Q\t=k\333\032=W\207!=\303_\005=t\304\025= \345\030=Jj\022=\005\370\036=\n\035\037=\000\000\000\000R\013\262=\201\0231=\305\336}=q\216]=\000\000\000\000\000\000\000\000\000\000\000\000\000\000\000\000\000\000\000\000\031\332\301=-u =\000\000\000\000\000\000\000\000\000\000\000\000\000\000\000\000\000\000\000\000\000\000\000\000\000\000\000\000\000\000\000\000\000\000\000\000\000\000\000\000g\235\022<\000\000\000\000\212\326\246=\000\000\000\000\000\000\000\000\000\000\000\000\000\000\000\000\000\000\000\000\000\000\000\000\000\000\000\000\000\000\000\000\000\000\000\000\000\000\000\000\000\000\000\000\000\000\000\000\000\000\000\000\000\000\000\000\000\000\000\000\000\000\000\000\000\000\000\000\000\000\000\000\000\000\000\000\000\000\000\000k2\224<\203\271\200==\360@<\255\3421<\'\311/=r\306\344<\226\311\025<\325\303\306<\n\000\203<\000\000\000\000p\'\270:8\374\216:\n9\020;\274\3538;\027\206\036<q\013\250<\362\306Z<\242w\240<\332L\303<\311\356Y<\305\356\216<\213\214\202<\243\354\212<\321\340\246<\377\220R<\261\367\212<\372o\233<\322\322\025<9(\313;4\035\247;e\367#<%\372U;\367`\2609\363\240\036:F\200\r;\263@\006=yL*<\360F\2029\327\025\332<\000\000\000\000\350s\211=\000\000\000\000\000\000\000\000\000\000\000\000\203\'\307<\000\000\000\000;p\211<\227\216\247<\217\031\260<.\263\006=\215\263Q<+\333\266<h\361\353<}D\337<\212\217\322<`\302\365<\243s\005=\006|\014=\306\345\340;\260\331\314;\313\331\337;\262\204\323;e\003\276;9\373\301;\320\034,;\310(\371:\316b\371:\347#\010:\246-\3239f(H:\033\346::}\317?:0\3742;\004U\310;\216#\322;/\220t9\000\000\000\000\350U\203;\351k\334;0n\017<U\021E<\026\353\016<B\253\300;}\264#<R\223\037< \352b<\320\325\216;\035X0<Y\310\305; %+<~\205\t<\370\317\365;do\007<]]\013<\006\026\222:\006}\t<\360g\013<7\310\"<Jh\001<EX\'<\032V=<\243\221\020<\000\000\000\000\000\000\000\000\000\000\000\000\000\000\000\000\000\000\000\000\000\000\000\000\000\000\000\000\000\000\000\000\000\000\000\000C$z:\255\212\313:\247\215G9&e\006:\000\000\000\000E\252=;\260F\312<\024W\331;\000\000\000\000E\357\354<\000\000\000\000\000\000\000\000\000\000\000\000\267\221\226:Ln\213;*t^<<\221 <\030R\221<\021\322\206<\000\t\306;\252\377%<EIj<~\3166<\355\022\262<\014\257\022=/4\003=\273\303\352<\032\223\345<\307\345\035<\326\014I;\000\000\000\000\000\000\000\000\000\000\000\000\000\000\000\000\000\000\000\000\244c\351;\037_\331;\010\323\37291\256\2769\327\025\332<\000\000\000\000\350s\211=\000\000\000\000\000\000\000\000\000\000\000\000\000\000\000\000)\210K=\327\237H;\272\336\337;\223\211\273<a\260\006=\315\204\246;\237\265\320<h\361\353<\362F\347<_R\343<\362\273\372<\276G\t=\221\177\020=p\324\002=E\266\021=\360p\034=\323]><\313_;<\007zr<2\224\315;\257\003\332;\204h\337;\216\372\0039\2427\3247\305cm9C\035o9\376lh9\312bd:\255\356\251:\000\000\000\000\000\000\000\000\000\000\000\000\307\202\254:X\262\025;\031aF;\325\343\204;\021BI;\037\341\000;f\377Y;w\356Q;\370 \036<\334\310\261:\002\364b;\210\243\002;\365\227b;\244-6;\245|\025;\241M0;1a6;\303]\2148\304_m;\276\3008;\220en;P\3408;TC\340;\341\006\200;3\336A;\000\000\000\000\000\000\000\000\000\000\000\000\000\000\000\000\000\000\000\000\000\000\000\000\000\000\000\000\000\000\000\000\000\000\000\000\000\000\000\0003\210X=\242\227\324;\300\330\327;\320\271\027=\270\215\203<\273\036\013=~\270\265<A\274\224:\000\000\000\000\3354\2269|XU=\356(\211:\000\000\000\000\000\000\000\000\000\000\000\000\000\000\000\000?,.<.\362\264;\262\275\200<ZU\234<.\233\326<\263\232\264<Iha<3\270\207<1\016\205<\256\213\240<\301Y\023<\253\224I;\345\314P<\312\267\227<\263\007\324<#\305\224<v\000\325;\305?d;w\274\207:\363\317\263<MDX9\236\223*9\327\025\332<\000\000\000\000\000\000\000\000}\217\246<\000\000\000\000\000\000\000\000\203\'\307<\000\000\000\000\000\000\000\000\000\000\000\0004\245\247<\3670\006=\000\000\000\000\362\n\265<\025<\346<SJ\362<\312\202\375<\032\t\277;\272\005\322;\0320\334;\004f\212<\222\023\234<\361\314\242<\000#\007=(\277\027=h\352\032=\334\270\251<)F\270<\023q\270<q\355\001;p\222s;\351\033T;\246\316O;50W;\2018D;\231\345\315:\331\304\r:?\226C<\322\t\346:[\2040<WCs<R\300\233<zv\263<\033\326\203<\037\277W<\256\226\245<\234\240\311<\261\247\275<\244\370D<j|\232<\346\277Y<\255\242\227<\031\344x<\211\310\232<\\B\204< \023\370<\322y\375;u\301\206<P\313\206<\246^\226<\3500\331<\246\312\216<\235@\262<\334\355\247<\000\000\000\000\333\306t;\252m=;{\317\260:\000\000\000\000\000\000\000\000\000\000\000\000\000\000\000\000\000\000\000\000\203\213\200;#\217\234;\000\342\3619>\230\021;\356k\247:\250\345a;\263f\032<{\267\222<\315\204\247<\000\000\000\0007\332\330<\000\000\000\000*\345\036<\311!f;zT\344;+/b<\303\213\032<\2007\225<\371pb<|\252\232<\346(\236;\207\375\334;5Yi<\362\220[<1\002,<\304\3428;\233\317\246;+\026C<W\2415<\353e\210<\025\023\245:\234/\026<\245\214\002<\303\353\277<\005\nk;1W}<\227C\270<$A\010<\'>\2639\327\025\332<\000\000\000\000\000\000\000\000}\217\246<\000\000\000\000\000\000\000\000\203\'\307<\000\000\000\000d\267!= \364\037=\330\335r<m\035\006=1q\203;q[k<\031\254\335<\370:@:\"\375[<\030\345\332;\314f\371;P-\206<\004f\n:\222\023\2349j3\3649o\266\221<\220\264\033<F\325\222<U\006\020=MB\010=\1777\033=v\355Y<H(d<\204\021}<\346\\\177<\305\035\201<\322\231\3319\000\000\000\000f\233\277:\320\036\235<\236\301C<\364]f<\332h\242<:\352\271<\313\246\274<\276^\243<\234\311\231<\352\337\256<Hy\276<\306\267\320<p?\226<}\350\260<\334\346\241<\260\271\257<\260.\242<V\201\225<a\\\241<\237\236\264<\310\256@<\277\325\355<\025c\272<\362\225\272<\r_\302<7L\275<\260\332\275<n\352\274<\000\000\000\000B\204\355;:\256\252;\000\000\000\000\000\000\000\000\000\000\000\000\302\355\203;\000\000\000\000,\267\035<M\245\347;\271\333\2318\315\261Y8\221R\002:\000\000\000\000\232i\0308\255\025s:G\332A<\000\000\000\000E\357\354<\000\000\000\000\000\000\000\000\235l\263<R\016\'=\000\000\000\000\373\321\260;\\\203\256;\000\000\000\000\000\000\000\000\000\000\000\000\000\000\000\000\000\000\000\000\353\240\371;\000\000\000\000\000\000\000\000\000\000\000\000\000\000\000\000\250\256\t=\000\000\000\000\000\000\000\000\307\263Q=\237\254\206=\000\211=<\000\000\000\000\000\000\000\000\331\217\261;\262\365\224<1dQ<\000\000\000\000\327\025\332<\000\000\000\000\000\000\000\000}\217\246<\000\000\000\000\000\000\000\000\203\'\307<\000\000\000\000\000\000\000\000\000\000\000\000y\354\235<V\317\004=\000\000\000\000/\371\233<-\263\360<\264M\375<^\204\004=\363\337^:\256\006u:dq\200:\301\032\241<\310\256\265<\221\202\275<\262\204\323<?\204\355<\007z\362<\201\330\274<\217\t\315<O9\315<\321\273$<\036\212\217<i\353\'<\031\302$<\306h*<;\231\340<\000\000\000\000\226E\242<\255*\346;\367\014j<\372>\200<\266\265\222<-%\202<\021\276\210<\001.\216<`\250\232<\237\260\231<\316r\225<\r\326\364;?\226\\<\352\013\266<Q\022\200<\025\272\210<\234c\377<\320\212\226<\327\346\200<\227\271\215<I<A<\213F\211<\232G\210<\314!\205<\200\202\302<R\t7<3\346\203<\227\360\177<\000\000\000\000\244j\254<\000\000\000\000\000\000\000\000\000\000\000\000\000\000\000\000\000\000\000\000\000\000\000\000\000\000\000\000\000\000\000\000\2033\361<\032\372\3759\260\036\313;\345!\373:\025\235\354:\255\004l;\225*\273<\331\277\007<\000\000\000\000\022\340\017=\000\000\000\000\237%\226<\300\016\254:eT\037<\361\225\210;_pU=\331M(=\203\004\355;\342\343P;\000\357N;\000\000\000\000\037\215\000;\000\000\000\000\000\000\000\000\252N\246<\244\234\314<\034\343\342;\300<S<4\'\366;\024\373\327:\333\264\n<Kh\022<E\367\252;\241\003\315:\263\004 <lk\231<\260\245F;\220\276K8\000\000\000\000I:\023=\000\000\000\000}\217\246<\000\000\000\000\000\000\000\000\203\'\307<\000\000\000\000\n\3631<D\177\243<A\315\260<hJ\004=\303i]<\334\220\304<?\343\305<\201<\305<\230\t\307<\315\277\367<\262\243\007=f4\016=\332\335\305<z>\263<\277\235\246<\026\036\312;\374t\263;\034\n\247;\376\214\242;>\305\201;\223\232d;\232Q\206<$\013\207<\007\351\211<\2075\204<;7\210<m\207U;\000\000\000\000\000\000\000\000\014\234\300;+\313\264<[\225\276<\220C\326<\355\246\300<\370\371\271<\250\017\245<\332\277\355<sn\273<\276\270\262<\013[\237<\343\323\267<\254\016\317<\326$\303<>\212\304<\351\221\256<\035\314\320<\031\003\277<\360\271\304<s\340\214<\030\345\225<^\206\264<\027\351\273<Ox\313<\245\017\250<Ds\311<\255\241\243<\000\000\000\000(\224\261;\314P\337;\000\000\000\000\000\000\000\000\000\000\000\000\002\235,<D\255\026=\000\000\000\000\020wr;m\0228;T?\240:\364\216\217;\345!{;V\003\262;\017\272\267;\353\244\304<\000\000\000\000\000\000\000\000\255\005(=\000\000\000\000\274^\224;\"\007]:\000\000\000\000\000\000\000\000\000\000\000\000\000\000\000\000\000\000\000\000\370+\006<\360\231\350<\206\2679<\220#%<\"\205\270;2\346j<\0178B</G\322;\327\230Z;\352\255\207:>\370\374:D\016\202<\006\273^<dl\333<\025\270$<\200hA=\273>\334<\355\206\272<v\366\266:qg\0339\327\025\332<\000\000\000\000\000\000\000\000}\217\246<\000\000\000\000\034\230\033=\000\000\000\000\000\000\000\000\224\224 <\334\250\247<\207\356\252<L%\004=\302\261\365<\245\\\300<\204q\247:\305)\010;\340:\037;\257A\023<\247\244\252;\274\312\222;\372\320\337<\315\237\375<\352\000\003=d\330\351<<K\003=\334\003\004=[\324\016=+\307\031=\364Q\027=\361\363\241<\030\247\201<\334\255\264<KZ\252<\262\330\261<\242\224\024<\266s\371:\270\262V:d\277\216;\266\202\244<\204\246u<\271o\253<\034\033\275<\027\305\243<\2216\231<N\311\305<Eb\257<3Y\243<a\335\215<\222\026\274<\247\337\256<\203C\277<:\354\263<\272\033\237<G[\254<\375t\240<ik\220<`*\323<\264|\223<\327U\235<d\335\266<w\252\264<\227\205\240<\366\331\236<\276\335\263<\000\000\000\000\322\036d;\366o\017<\000\000\000\000\000\000\000\000\000\000\000\000\000\000\000\000\000\000\000\000\253\212\204<\271\274\033;\366\024\0379 \017\2109\270_\331;\356k\2479\260a\2479D\203K;\217\221u<8\337\226<(\374\201<\000\000\000\0004^\347;\365OV<\000\000\000\000\000\000\000\000\000\000\000\000\000\000\000\000\000\000\000\000\000\000\000\000\000\000\000\000\205\375\237:\000\000\000\000o\025\025;\000\000\000\000\000\000\000\000\215\315\235<\000\000\000\000\"\220\003;\001\372\364:\020\274\216<Kz\372;5{V<\236\267\"=*\245q=\371-A=DR\254<e-~;\217\365\001;\342J,9\000\000\000\000I:\023=\000\000\000\000}\217\246<\000\000\000\000\000\000\000\000\203\'\307<\000\000\000\000\031\243s<\021\330\267<`\273\233<.\r\004=\334\'\017<Y\207\254<\270\317\263<\316@\323<\363!\311<\207\364\316<\210\216\357<\233\021\343<8Q\t=k\333\032=\212\344 =\310q\340<\241\256\335<\352\210\327<H\314H;>\305\201;\375\245\260;\027`\213<\003\217!<\'\374J<?\252C<NOD<\273\031V= 3\341<\202\rZ<\3460\316;\276\307\013;?\307\'<\354#\201<\364\272k<\232\252\207<\265\257\322<lO]<\224X\223<\216\007\214<\213\021\247<\'\266\205<\232&\212<\276A\227<\016\314\200<r\270w<\002\351\222<\3036\214<\223\215\210<[\213q<\367\337\223<\252\305\202<\310\367\203<(\246\205<\365\330\223<\341\220\216<\237\nU<\000\000\000\000\000\000\000\000-\314\362=\000\000\000\000\000\000\000\000\000\000\000\000\000\000\000\000\000\000\000\000\000\000\000\000\227\230\214;sU\354=v\327\247=aP\360=\326H\363<v\252\002=+7-=3\002t<\000\000\000\000\000\000\000\000\255\005(=\000\000\000\000\000\000\000\000\000\000\000\000\000\000\000\000\212\033::\0103\254;~\230\t<\200\330I;\217\014\371:A\327\207<\373\302\360;\005\330\210;\310\367\345;F^\201<\261\212\265<\352\354\253<\2322\236<\274\333\351;\017)\2069\032\034o<,o\340;3v\221<\273\' <\033\310N={\275\233<\377.\236<8-\3319\236j\3149\327\025\332<\000\000\000\000\000\000\000\000}\217\246<\000\000\000\000\000\000\000\000\000\000\000\000)\210K=\313\306\221<j\375\357<\236V\202<\2036\002=O\024\253<\215\334{<-\263\360<\264M\375<^\204\004=a\346\331<\217\246\360<\035\266\367<\345\245\265<\266%\255<Y\343\247<o\266\221<&&\221<\345dj<+\375\230:0\033\246:\243y\221:y.g9M\314{:\306\035\2709\307\036\2529R\201\2559\0176\332:\000\000\000\000\306BG:\034\261\206<\266:$:4z\006<\325\334\033<\213<K<k\227\202<\203H=<\353\337\007<4ra<W\021\210<R0\214<\356\312\314;\263\342d<\210K\010<\274\233W<\004v5<\2608?<s\3254<\020\260\241<\2749\357:\000\3125<\315\027;<rAL<v\233\203<8\270F<\272H\200<\206\210V<\000\000\000\0007N}<\210(\030:\000\000\000\000\000\000\000\000\000\000\000\000\000\000\000\000\000\000\000\000\000\000\000\000\0300%:\016\034\2258\032\t\2058\260V;:\000\000\000\000\222L\2437\022 \3428;\366G<\000\000\000\000E\357\354<\000\000\000\000\000\000\000\000\000\000\000\000Y\260\006>\000\000\000\000\357\024\276=\000\000\000\000\000\000\000\000\000\000\000\000\000\000\000\000\000\000\000\000\000\000\000\000\000\000\000\000\000\000\000\000\000\000\000\000\000\000\000\000\000\000\000\000\000\000\000\000\000\000\000\000\000\000\000\000\000\000\000\000\000\000\000\000\000\000\000\000\000\000\000\000\000\000\000\000\000\000\000\000\000\000\000\000\000\000\000\000\000\000\000\000\327\025\332<\000\000\000\000\000\000\000\000}\217\246<\000\000\000\000\034\230\033=\000\000\000\000\000\000\000\000\36602<\206 \222<\254\r\206<M\024\002=\245\211\253;\317x|<\311f\317<\244F\346<pj\373<\251\314\355<\214+\002={x\010=\365\005\240<+\316\260<)l\270<z\267\300;\003\331\315;\302O\342;\300{e;>\305\201;\262\253\226;E\036\354<md\355<\034\316o<\350`\241<%{\213<\000\000\000\000\000\000\000\000\000\000\000\000\000\000\000\000\000\000\000\000\362\332(=\207I\370<\022\242\003=\000\000\000\000\021\210\243<\214\333\220<i0\220;\305\312\266;\000\000\000\000\264\266\244<\325A\r<\351\333\305;\021\300\014;\301\311\247;\000\000\000\000\025\323\212;\000\000\000\000\262\345\312<\000\000\000\000\020Y\256;\226\346\230<\377\302\312;\242\021\202;\000\000\000\000\000\000\000\000\000\000\000\000\nY9>\000\000\000\000\000\000\000\000\000\000\000\000\000\000\000\000\000\000\000\000\000\000\000\000\000\000\000\000\000\000\000\000b\\\0208\000\000\000\000\000\000\000\000\000\000\000\000\000\000\000\000znm:$\234n<\000\000\000\000\000\000\000\000\255\005(=\000\000\000\000\000\000\000\000\366\366\212=i\222\355=\000\000\000\000\000\000\000\000\000\000\000\000\000\000\000\000\000\000\000\000\000\000\000\000\000\000\000\000\000\000\000\000\023t\344;\000\000\000\000\000\000\000\000\000\000\000\000\000\000\000\000\000\000\000\000\000\000\000\000\000\000\000\000\000\000\000\000\000\000\000\000\000\000\000\000\000\000\000\000!\312\265<\004K\256:\000\000\000\000e\005\2077\327\025\332<\000\000\000\000\000\000\000\000}\217\246<\000\000\000\000\000\000\000\000\000\000\000\000)\210K=I3Q<\260\245\347<\036z <s\237\001=\236\201\327;\261b,<\327\215\3639\370:\3009\242\026\006:\030\345Z<\256\006u<\372\226\201<\316\025V<G\311\211<\356\024\226<\254y\023=\371B&=\322\273)=\025\216\323<<\226\351<m\235\327<;e;<\352\351\243<\335\207s<\022\217\203<\224\262v<\000\000\000\000\000\000\000\000\000\000\000\000\3460N<\220\237o<\272K\220<\026\rj<\257\004\004<$\247093\362\337:\311\356e;E\344O;\343\271\n<\237\334\241:\224|`<\325\207\206;f\003h<z\371!<\374\3710<\200\323\213<< \315;\246^@<\021[\247<E\252[<\330\017\r<\335\005)<\201\234\r<\237\037\320;V\r\360:\000\000\000\000\000\000\000\000\000\000\000\000\000\000\000\000\000\000\000\000\000\000\000\000\000\000\000\000\000\000\000\000\000\000\000\000\000\000\000\000\000\000\000\000\355H\3609P\274\236:\206\301R;\000\000\000\000c\216 <\245\'\020;\001\226{<\000\000\000\000\234\234\352<\000\000\000\000\014\210\t:\000\000\000\000\000\000\000\000\000\000\000\000\000\000\000\000\000\000\000\000\000\000\000\000\000\000\000\000\323\000\253;\000\000\000\000\000\000\000\000\237x\322;[#<<\023<8;\000\000\000\000\352\2522<RM\213<\344\'X<\372\201I<\314\3160<\013\031c<\020\273\333<\377p@=\261\\\210=\205\265\025<\306r*<\317EV9\214<s9\000\000\000\000I:\023=\000\000\000\000}\217\246<\000\000\000\000\000\000\000\000\203\'\307<\000\000\000\000]\023,<U@\256<\347\322\253<\304^\001=2\266i<M\271\244<\204q\';WBX;+\n\233;\213N\t<<T\033<\223B\036<\3678e<\370\375n<3\360d<\344?\013=\301\311\023=\216\332\024=32\027=\372\316$=[\365$=C-\203<\327\334\267<y\203\223<_\322\237<\210w\226<\321\252\221;\352\366\236;C\321\210;\344QZ<:VE;[\346\271<\317\340\237<z\023\311<^\370c<\301\013\201<\243Q4<\235Bs<\267+t<X\327\304;1N\224<\315\247V<4\347\246<B&y<a\007n<\324\344\243<]\177\201<\031(\202<\351\224\244<>\t\226<\316\225\210<\226M\212<E\364\217<Ap;<\250\264u<\027RY<\000\000\000\000f\016\332<\000\000\000\000\000\000\000\000\000\000\000\000\000\000\000\000\000\000\000\000\000\000\000\000\000\000\000\000\023}\306;\rbq;@\201q;\035\264\027;\356k\2479&\256\327<D\203\313;\351\351\205<}n\035;\000\000\000\000p\005!=\000\000\000\000\365O\326;\337.\t<N\256!<x\000F<\000\000\000\000\000\000\000\000\000\000\000\000\000\000\000\000\000\000\000\000\000\000\000\000p\025\225;\265C\205;\342\177\002;\357D\214:2y\335;=<\346;!\013\307<\025k\262<\270\333;;\317\253;<L*\315<9\202\216<\354O\213=\r\216\204<R\030\232<\353\206g<*JL9\327\025\332<\000\000\000\000\000\000\000\000}\217\246<\000\000\000\000\034\230\033=\000\000\000\000\000\000\000\000X\320\236<C\200\326<\352[\273<)\267\000=\230\312\007=\343\274\321<\252\017\326<\006F\344<\022\264\325<\362\304\363<\266/\010=]E\364<\326^\003=\316\372\025=\005\325\373<\323O\210;\374t3;\210m,;\214t\272;}\271\233;\033\n\273;<^\264;\244\306\215;u\010\271;\247q\245;\345\206\262;^\205S<X\346\250<W^\221<M\r\222;\276\307\213;\237\267\035<e.U<\325\362z<\032\256\230<@\271\211<\r\254\215<\026\223\215<.m\200<NG\237<\374\317N<a(\217<>\236]<P\237\212<;\232k<\300\263\205<\303Vu<\262\250\227<\250\332\355;#\034j<\260j\203<l\256\200<\366\352\350<\210\325\203<\301\310\265<\272C\211<\000\000\000\000&\361M;\000\000\000\000\000\000\000\000\000\000\000\000\000\000\000\000\000\000\000\000\000\000\000\000\000\000\000\000\000\000\000\000\2173\005:?\344\322:\362\256N;\000\000\000\000\301\232\227;xL\337;\337X\223<\000\000\000\000\000\000\000\000\255\005(=\000\000\000\000\230R\303:\000\000\000\000\000\000\000\000\000\000\000\000\000\000\000\000\340\024\000<\304\204\372;<\376\t<\225\325c<[\262\355<\212\317\313;\377\321\227<\217\370\252<\005\322\217<YDX<\244\317\357;\300PQ<\371%]<\326j\353<\262\177\214<\372\331\r<\264,m<Z\307s<\225KA;\311\262J<|\332V9\235\r\0249\000\000\000\000\000\000\000\000\000\000\000\000}\217\246<\000\000\000\000\000\000\000\000\203\'\307<\000\000\000\000\000\323\325<\306\261\227<\026\225\250<\347\243\000=\235\222\001=\312\007\316<o\321\332<\2775\257<Q\330n<\316\310\360<%\014\230<\231N\325<\177\002\375<\310\256\265<\270\321\206<\220\235\262<\304\373\240<#\300\212<\234\025\201;\257\003Z;\337A&;\024\254]<\205\342h<\366\276\207<o\001\201<\031\303\205<\t[\210<\314>M<F\207\017<8i\323;\316\360\336<W\033b<\243Z\203<\201\247u<|\026m<\225RW<\373\230z<DT\202<k\253_<\375)~<\210\275j<\225\013v<\224\037\203<\222\200r<\227\331\212<G\312Z<\250\345\265<L&\213<\241ed</*W<\331\036s<\235\223w<\310)\177<\212n\202<~\262n<\002\367f<\000\000\000\000?\305\214;\000\000\000\000AI\334;\000\000\000\000\000\000\000\000\032r\266;zB\037=F\033Z<a#\200;\252\225\177<T\334\276;#M\325;a\245\212<\007Q)<\255\004\354;,p\242<\314\377\2649\000\000\000\000f\320\005=\247@-<]\262\241;\000\000\000\000\000\000\000\000\000\000\000\000\000\000\000\000\000\000\000\000\000\000\000\000\000\000\000\000\212\322#<7\363\360<8\271\250<\265]\254<\300\374R<\321\021\010<\272\344g<<\023\243<\220m\236<\257\211\335;\236|\224<\021b-<(\003t<.\221\205<\370;\340<\364*Y<V\032\314<s\"\\;\302\336\214:\000\000\000\000\000\000\000\000\000\000\000\000}\217\246<\000\000\000\000\000\000\000\000\203\'\307<\000\000\000\000Jwm<\255\227\250<\027D\243</\203\000=\377\331\301<\322}\252<-\263\360<\003N\376<^\204\004==\341\335<\214u\313<\352\233\260<\376h\332<\263\377\274<\361\314\242<\205\270\357;lg\330;`4\267;\243\254\265;\374\241\317;\215\256\t<\342\031\222<\227/z<\237:\271<I\276\254<\220)\262<\020m\336;\000\000\000\000\232wF<\202\004\310;<\272%<pC\211<\373L\220<\364\362F<\347\271.<\342\007Y<q:\232<\207QN<\003\361f<\232\020\215<\254y\265<\030r_<\024b~<5\222[<5\224\200<\246\375#=\230\003c<\272^\212<\243&\243<\376\372\\<<\344F<\332\366f<\252\000\201<\314\201\220<\tt7<\\\326\233<\000\000\000\0002\371\335;\314P\337;\000\000\000\000\000\000\000\000\000\000\000\000\000\000\000\000\000\000\000\0000ZN<L\331\265;uC@;\223\336\037;\353\317\244<\356k\247:\3313w<\376%\n<\003\341\203<\365\234\032:\301\202\352<\000\000\000\000\000\000\000\000\002\271\'<6)\234<\007\251T<;\373\214<\300!\243<H\207\332<4\232\203<9Z\365;\373A\210<L\032\300;\000\000\000\000\000\000\000\000\000\000\000\000\357%\001<\220o::\000\000\000\000\237\377\312;\235R|;\346n\241;\013\031c<|\350\021<\340\n\022<\317\276{<\304Sj<\246\264\356;\230\022u<\213\232(:\000\000\000\000\000\000\000\000\000\000\000\000}\217\246<\000\000\000\000\034\230\033=\000\000\000\000\000\000\000\000O\354\346;&\'j<\261\203K<0v\000=Et*<3\371A<\366}\246<`.\227<WG\212<\035H\216<\331\033\215<;\351\213<\025\371\271<\254\263\334<\235\276\366<,\022r<\363w\222<h\352\232<+\375\03090\033&9\316b\3719IUO<u$6<\333;\205<\255Qx<\250~\201<\226f\266;A\340\245;,\327y;\345\323\320<V-4<\220i\217<\350E\312<Ao\353<\252\212\014=d\257\341<B\215\274<\243\032\365<V\342\004=\313!\332<h\245\242<L\024\001=\213\326\314<}\232\002=\032i\345<55\301<$-\352<3\314\336<\210|\326;8\007\017=\\\314\350<f\236\367<\264.\324<\036y\301<\034\007\t=\250\301\362<\000\000\000\0007\235\275;\000\000\000\000#\010\262;\000\000\000\000\000\000\000\000\000\000\000\000\000\000\000\000\000\000\000\000X\036\317:\350\312\010;Hm\327:T{{;\345!{:\347M];\025d~;\217\272\216<\000\000\000\000\210\305_<\227\300\217<CZ\257;\365O\326;cr\357;5\3078<d\327\023<=r\320;\"\347\225;O\357\216<O$\346<H\374o<5\010\225<\264\210\356<G\227\222<\000\000\000\000\000\000\000\000p}\312:\000\000\000\0006\373\303:w\006\211;\326a\310;\260i\213<4\007y<r\355\355;\333\247\016<\335\020\237<@l\023<D\333\227<rI\3549\327\025\332<\000\000\000\000\000\000\000\000}\217\246<\000\000\000\000\034\230\033=\000\000\000\000\000\000\000\000\327:\237<O\033E<\302\302\247<\3405\000=\002<\0149g\021\247<\000\316\214;P\'\200;v\331\226;`\313\356;\025&\337;\020\236\t<\205\377\254: \221\010;\313\331_;o\266\021<\331\'p<\260\246\241<!*\321<\'s\r=\022\266!=\006\335t<oJX< \307\212<\365;\206<U\361\212<]\332=<\003\256\312<L\017\233;\352\363$;}\274\'<\033R$<\350\021\201<\360\254r<\364\341i<\010\305{<\230\257\227<u\273\206<\241Xg<\346\021\315<\014]\215<\027_n<e\026d</\241t<\252b~<8\"\202<bzl<4?\202<\030\377\206<\234bk<\223\273|<\010\t\201<\214\313\203<4K\271<\352\272\200<\256\341f<\000\000\000\000\354\300\244;\365c\233<\000\000\000\000\000\000\000\000\000\000\000\000\000\000\000\000\000\000\000\000\366r?=\000\000\000\000=*\2017\232\201A9\251\025\255:\000\000\000\000\222L\2437?\373\2229\373B\242<\000\000\000\000\000\000\000\000\255\005(=\000\000\000\000\000\000\000\000\000\000\000\000\000\000\000\000\000\000\000\000\027O\220<\000\000\000\000\375<\230<\000\000\000\000j\206\335<\000\000\000\000\000\000\000\000#\205\270<\023\261\264<\000\000\000\000R;/=\t*6=\000\000\000\000\000\000\000\000\000\000\000\000\000\000\000\000#\273\234<\022D\t=\000\000\000\000\000\000\000\000\000\000\000\000G\352.;i\034Z9\327\025\332<\000\000\000\000\000\000\000\000}\217\246<\000\000\000\000\000\000\000\000\203\'\307<\000\000\000\000\367\256\215<\303\357\353<\222[]<%/\000=l$u<\230\240b<\327\215\3639P\'\0009\242\026\2069@2\037;-$\231;\024$%<\273\035\361<\020\323\327<\364\204\257<\351Q\346<\n=\350<\022\302\314<Oc}<MB\210<\001\311\205<\234[\227<\240!\333;e]\341<,3\310<\211\245\326<lp\253<\000\000\000\000\000\000\000\000\205T><\271\212\301<\315u`<\263Z}<\\x\026<\307\375\265;W{\210<,\366\262<\233\351\'<\016\325,<\336or<f\315\316<J\2220<?\243\202<$\t\245<\256\303F<\322VM<qg\224<\267zT<,\0047=]Z<;/aO<?\322\034<\203w\257<\224b\321<\230=\206;\315w1<\000\000\000\000\000\000\000\000\000\000\000\000\000\000\000\000\000\000\000\000\000\000\000\000\000\000\000\000\000\000\000\000U\255\245>\000\000\000\000\346\027\035<\302Y\001<\025\201\205<\255\3421<\037\370\263<\227\373J=\366\'\247<g\260\020:\000\000\000\000f>%=KX\3039\220\021\333<\221\2350<\023\327\r<\tu{;A\035k:\000\000\000\000\000\000\000\000\264\206T:7\243\372:\312\"g<\t\331A<\237\201J<$\363\265<\213Rm<\341\316y<\371\020+<\243fK<\324\373B<\"\\o<\027\244$<\274.\023<\3672\030<$\"I<\301\323\316<P\364#=W\243\323:\020#\022:\000\000\000\000\000\000\000\000\000\000\000\000}\217\246<\000\000\000\000\000\000\000\000\203\'\307<\000\000\000\000\212\004-<\003\374\303<\326\342\301<\267\342\377<\242\324\246<\230\341\333<\213\270\334<|H\354<\330\374\361<\251\272\373<\302\323\t=\306\354\017=B\264\303<\357\346\266<W\207\241<7\367\264<1\274\270<\210m\254<_\004\304;V\352\240;\316by;\2716h<\310\253\210<\004\245\224<\217\324\215<[U\222<?F\215<$\202\276;:\014\201<!\307\032=\rA\365;M\357\351;\237=\005<\246/\277;;x8;\"l\357;\210<*<X\023z;\202\311\r<\212\317*<\211v><\332A\315;&\320\023<\205\324\262;\020r\021<j\357\034<\001\337\300;Vp\016<\264H\021<-\322\260<\241\005\326;^\024\353;\324Y\013<9\312/<\010\256e;\272\365\205;\312\310\240;\370\006\310;\306\276\302:\036\300\265;4X\3319\000\000\000\000\341\022#<z\"\257;\000\000\000\000\333qS;\230\000\3369\347\311\3459\320Z\364:\345!{:\360j\363:\251\215:<G\275q<\000\000\000\000E\357\354<\000\000\000\000\000\000\000\000$\222\314;9\3350<\330\307#<a\315\364;Ye\343;\277\377v<\274\345\340;o\002\200<`\240#<\343\336\363<\340`\320<P\030\250<\306B\227<\300\250x<\370\226\003=4XE<uo\310:\000\000\000\000\000\000\000\000\000\000\000\000\000\000\000\0007L\3309\300D{<\367\232\020<|5\n=C\246\201;\321`\030:\000\000\000\000\000\000\000\000\350s\211=\000\000\000\000\000\000\000\000\034\230\033=\000\000\000\000\000\000\000\000\356\336\n<\213\227\233<\234b\237<\251H\377<Y\352y<at\225<\022\314\356<\027M\373<\032\362\002=;\275\371<\247\377\005=\345R\007=\027,\177<\251\215l<08X<\275i\226:\223\346\250:9\373\301:+\375\23090\033\2469\337A\2469\000\000\000\000\3232f8~+p8\362w\2308\200\t\2338\326\247\253<W\346(<u\225\236:\000\000\000\000\000\000\000\000M=\002;\213\366\313:\031\305\304:\346h\352:e8\356:\252\351\250:<\333\276:\214c\274:\016\312J<3\001\034:V\254\255;\335Cj:\024\225\356:<\350\237:8\273@;8\031\263:\2355\240:o\035\2308uN\242:\303*\242:D\226\n;:1\255;\016q\016<z\355\340:\253\232\250:\000\000\000\000\371\251`:\000\000\000\000\000\000\000\000\000\000\000\000\000\000\000\000\000\000\000\000\000\000\000\000\000\000\000\000\000\000\000\000\343{\027:\032\t\0059\003\241K:\356k\2479@\313\032:\362\010\016<\260 \246<\000\000\000\000E\357\354<\000\000\000\000\000\000\000\000\257\265\\<\220\322\240;Y\327N<\345\2553<\000\000\000\000P\274\337;\000\000\000\000\250*\002;\000\000\000\000\000\000\000\000\000\000\000\000\000\000\000\000\002\374\272:\202:\373;\342\252\236;\032\202\274<1W\021=3N\360<\353\314\221<\202\250\231<\213\231@<\000\264o<\036\003\245<\3153\200<\222NH;\263(\300;\214\316\2548\000\000\000\000I:\023=\000\000\000\000}\217\246<\000\000\000\000\000\000\000\000\203\'\307<\000\000\000\0004\351b<y\237\317<fq\264<\033\355\375<[\264k<e\221\265<-\263\360<\264M\375<1x\003=\322+\244<\256\274\253<\351\330\242<\261\272\266<\340\203\236<\207\376\220<7\367\264<[m\226<\007zr<&\370O<\235\263(<\205\025\007<\351Z\251<\200\376\225<x\202\305<\365\264\301<\265\315\303<\327\300\010<E\301\323<\010\223-;\347\247`<BQa<\025Z\304<\035\374\363<\261\247\003=t\255\017=\030{\r=\217\346\357<\211\257\013=\342M\006=J|\305<\014=\362</\201\n=\244\333\363<< \r=Q\346\364<O\302\344<]\214\000=\243\031\355<\363\026\241<k\333\341<c\006\020=nV\005=\370C\003=\320\230\320<*\341\021=\306\266\013=\000\000\000\000\272Q\212<r\2129;\005)-<\000\000\000\000\000\000\000\000\000\000\000\000\000\000\000\000hr+<\nE0<?F,<.\342\331;5\347\";/\365\234;L\227,</\255\277<KQg<\321\272\372:\316\253\342<\000\000\000\000\2618\016:\336\213\343;^\334\323:4\252+;\326.\250:Wh\203;\354\250\276;c\306\360;@\302 <\210\032\277;;Zm<\373|h<\344\2659<|\266\231<?=\236<u\'V<_[g<\326\371{<d\003E<\024\230\225<x\321J<\376\234l<\245\222\203<r\370\217<\250K\366;\236\267\353<&\246\000<S#n:\000\000\000\000\000\000\000\000\000\000\000\000}\217\246<\000\000\000\000\000\000\000\000\203\'\307<\000\000\000\000\371\352z<\266rt<\215x\247<\027\361\374<-\312\327<\2646\302<\306\366\327<\316@\323<>\361\304<@2\237<$Va<C\270P<\265R1<h\265*<\361\314\"<\026\036J<\235|P</\263g<v<\277:\226\336\272:\316b\371:\304\262^<\326\372N<\212vf<\227\360`<\253\321c<?~v;&\033o;\215\204\347;A\207\016=\272\014\031<\034\336\"<{=7<6b9<\324\343\273;{\017d<\306(\037<\341+\372; \275\356;\316\220e<\022\032C<\030\373\375;\337\314\'<\243\177\000<\242\217\037<.\312\014<`\324\017<[\317\035<v\307_<\362\227\230<\"\314-<\tW\000<\273R8<\244\260v<*t\353;\344\245$<\000\000\000\000\326\375u<\304\232\360;\000\000\000\000\000\000\000\000\000\000\000\000\000\000\000\000\000\000\000\000\000\000\000\000H\236\002<Yqd;\251s*;\343d\242<\356k\247:v\267\257:(\364/<bnc<\025pT:\343 \351<\000\000\000\000KZ\3418\346f\311;\276>\020<\330@\014<R\306\001<l\217i<\232\252\306;\260\366\036;Y\031\014:\000\000\000\000\000\000\000\000\000\000\000\000\000\000\000\000\000\000\000\0009=\242:_\335\355;\000\000\000\000H]\335<\272S\214=)H\331;*\312\003<w{\365;,T\272;\313?N<q\3459=rK\204;\257=\n=E\364\0028\000\000\000\000I:\023=\000\000\000\000}\217\246<\000\000\000\000\000\000\000\000\203\'\307<\000\000\000\000\347\223\321;\006\177\213<\207\256\006<\267\203\374<\301\257\037:=\0300<S\352\330<[:\276<\003k\317<;\306\362<\324~\372<\246\303\n=\336u\300<\026\037\270<bg\324<!\037y<\250\022x<Hg\211<\000\000\000\000\000\000\000\000\000\000\000\000C-\003<\245\246\323;\345\316\022<[\316\017<\246\344\021<\036\024\';\000\000\000\000\311.`:\217\214d<\246\221\027<\321w(<\350\020]<\221o\206<\206[\214<\217\357|<\'\375S<\233\334|<\216s~<\364\333i<\323w4<\001\267\202<\314\367f<\200\264\200<\nko<\030\367g<\240\337d<w\306s<\236O\270;\256\265\237<\373v\215<9\236{<\"\242R<8S_<<\374\207<\033\242f<\000\000\000\000\2562\356;\000\000\000\000\000\000\000\000\000\000\000\000\000\000\000\000\000\000\000\000\000\000\000\000\234e\n<\375\235\242:\352\370\224<\362q\201;\226C\357<\356k\':\230\"*=\251\215\272:\244\370\203<\273%l=\000\000\000\000\000\000\000\000\000\000\000\000\261X\257<\\B#<\177\223I<\362ff;\000\000\000\000{F\010>\275\354$=\000\000\000\000\263\346\002<\000\000\000\000\000\000\000\000\000\000\000\000\000\000\000\000\000\000\000\000\000\000\000\000\000\000\000\000\000\000\000\000\000\000\000\000\000\000\000\000\000\000\000\000V\370v<:LX;\337\257\201;\000\000\000\000f\244\212;\311\204\030=>\342\0008\000\000\000\000\000\000\000\000\000\000\000\000}\217\246<\000\000\000\000\000\000\000\000\000\000\000\000)\210K=\207\250\250<\206\031\272<\364\232b<\365\004\374<\320\373\005<\204\314X<\213\270\334<\272A\326<\307\344\331<\255&\250<\035\364\226<h\367\233<\306\345\340; \221\210;9`~;d\321\316;*X\036;\327\337\026;\300{e:\310(y:\243y\221:\256#\211<\251\317W<w\352c<\000\363X<O\004\\<#\234J<\000\000\000\000v\225\236<d6\203<\317|\030<\217\261\200<z\355\216<\333(\211<\224A\240<DU\232<\024\251\217<\332S\235<Z\356\214<T\230\273<p\300\230<\212\005\220<\350\202\237<\242c\234<\244\004\220<\314\344\253<\025cx<\3537r<\364\302!<\n\303\217<\343e\214<\317V\245<\246f\273<\303\"\242<\341G\236<\021\236\223<\000\000\000\000\375\251\340<\000\000\000\000\000\000\000\000\000\000\000\000\000\000\000\000\000\000\000\000\000\000\000\000\000\000\000\000\245`\231<\2752m<\2560\351;+Vs<:\251\316<\004\343P;\246I\036;\017P\300<\313\224t<\000\000\000\000\000\000\000\000\234o\"=\207\250\316;\010X <\201{\224<C\267)<L\000\206;Q\352\360;\316\013\324;-\274\033;\301F\232;\326\234?;\000\000\000\000\000\000\000\000\376\310\';\242X\264;\000\000\000\000\351K>=/\333\304<\0328\334<z\005\241<~\341\t<3\211\221;\234\016\337<\241D\345;\231W\210;\001E}<\216\027B;\2320\3278\327\025\332<\000\000\000\000\000\000\000\000}\217\246<\000\000\000\000\034\230\033=\000\000\000\000\000\000\000\000\311\333|<\313A\370<%\315\276<V\356\373<\224\357\217<\226D\307<I\232\362<QN\377<\213\220\005=\362\273\372<\272\273\010=\301\023\274<\304\262\233:\004\226\257:\361\314\242:\3656);i5\313<\245^\307<\214t:<\025\307\356;\204h\337;\353\222\223<\303\205\272<\206\314\266<\241\305\265<\311E\273<\000\000\000\000\000\000\000\000\000\000\000\000?\353\334;\254\267\263;\352<\212<7\340\261<\031\353|<\341\324X<\0064B<?x\253<C\020o<\216\216\233<\022Jl<\236*\240<\321x\212<\242\261\302<.Hk<E\357\202<2\244\211<2\230j<n\221\177<\275\263\350<d\356\204<Q\245i<\257\344\206<\336C\216<\336\177x<\303\375g<\2672|<\000\000\000\000,d\204<`}&<\000\000\000\000\000\000\000\000\000\000\000\000\000\000\000\000\000\000\000\000\000\000\000\0002\3044<\2772\";\324c\002;\260V\273;p~\222;\217\355\2209\245\'\220:\203\334p<\000\000\000\000\303\324\271;\000\000\000\000O60=\000\000\000\000\000\000\000\000\000\000\000\000p\025\225;1\265\\<\000\000\000\000*9\233<\254\360\212=\311f\251<\000\000\000\000\000\000\000\000\000\000\000\000\000\000\000\000\000\000\000\000\000\000\000\000\000\000\000\000\266\354\254;\3104\241;X\034s=\212?\275<\335\315\037<\000\000\000\000\317\276{<\205\265\225;\023\211\217:n\201\3239>c^7\327\025\332<\000\000\000\000\000\000\000\000}\217\246<\000\000\000\000\000\000\000\000\203\'\307<\000\000\000\000\317\3615<w\330\257<\216\351\264<\362\337\373<C\356G<\213\370\274<\273\246\361<fM\374<\032\362\002=\0346\234<\2756w<\355!L<\357\010p<\3327><V+\033<Y\311\204<;R`<`47<\243\254\265;\nL\253;\356s\253;\224\237H<\224m_<\004ky<\244\\{<\206[y<\372\314\256<\000\000\000\000\3449\315<\355\213\021=\253\000\224<\004\251`<qxk<\341\267\232<y\025d<\203\253v<eo\213<U\024R<\301u\226<\262iL<\321\326\212<\250\313\214<\266\360x<B\002j<G\311s<\006\315(<\344\206\250<\366{\242<\201\233(<w\277\213<p\231\216<4\305s<>\255X<\204+\235<\301w]< V4<\000\000\000\000\357^\021<\000\000\000\000\000\000\000\000\000\000\000\000\000\000\000\000\000\000\000\000\000\000\000\000\000\000\000\000\000\000\000\000\340\240\303<\235\004C;\260V\273;\356k\247:/\223f<\220dI<U\0276<\000\000\000\000E\357\354<\000\000\000\000\000\000\000\000y\221X<\037\"*<\330\273\335;\327\305v<\025\220$<V!\315;uSP<\254\332]<r\307+<\340\251E<\023|\251;\000\000\000\000\000\000\000\000\000\000\000\000\335\306\177:\252\362\004:\236\252\271;g\337\245<Y4\365<\356*\237<4\257\200<\246P/<r\264;<\261ij<\332\337\016<\245\2216<&m\2409\000\000\000\000\000\000\000\000\000\000\000\000}\217\246<\000\000\000\000\000\000\000\000\203\'\307<\000\000\000\000\325\362><\006\201\303<\221d\270<\360u\373<\240m\214;\214\337\266<a\252\266:$1\240:v\331\226:\363\337^<\266\324,<\301\023<<\322\306\010=W?\032=\212\344 =Y\327\272<V\242\002=\323\004%=\327\263\340;\352Q\036<\270\227q<\265\005\363;N>\306;/J!<\244B\033<\247f\037<\264\302\214;\035\002\000<D\033P<\366P6;p\024\026<\236\207A<\272\263x<\217\356~<\256\313\220<\237B\203<\257\203x<\257\223\221<Lu\227<\244\013\304<m5B<_\267\220<\243eZ<)\210\210<\346\365h<\032h[<\306\276x<M\356\207<Z\342\373;\313\026u<B\262~<\304\311\205<\354q^<\343\177\247<\2671\220<\364\315u<\000\000\000\000\035\034\320:\000\000\000\000\000\000\000\000:$\333:\000\000\000\000\000\000\000\000\000\000\000\000\000\000\000\000T\230\261;ee\273:\212\362\271:.\336\004<\356k\';\213\316\006;D\203\3139\253`\276<\000\000\000\000E\357\354<\000\000\000\000\000\000\000\000\365OV<\376\211G<\000\000\000\000\2643\323<\000\000\000\000\000\000\000\000\000\000\000\000\000\000\000\000\000\000\000\000\000\000\000\000\000\000\000\000\000\000\000\000\000\000\000\000gg\322=\313\034\375<\000\000\000\000\000\000\000\000\000\000\000\000\000\000\000\000\000\000\000\000\244c\342<\340EF<\000\000\000\000\335\020\037=\000\000\000\000\034Y\260;\000\000\000\000\327\025\332<\000\000\000\000\000\000\000\000}\217\246<\000\000\000\000\034\230\033=\000\000\000\000\000\000\000\000\327:\237<F\273\222<\316a\217<`\362\371<\3309\310<\203\343\203<\366\344\354<CC\333<\266\314\301<\205\307\361<\334L\262<Q\360\223<\306\345\340;\222\023\234;\204F\204;z\251\n<\334Y\375;/\263\347;H\314\310;\"q\312;\014\330\265;\004\347.=2s\253<\305?\310<\276O\270<\272\232\304<\355\026\245; 3\341<\036\323A<j\323\253<\276\307\213<\023g\304<\255\252\025=\221\356\376<o\304\026=D\227#=\005\220!=D-1=\213-\032=e\375\361<\006\257\007=\360{,=\212\030;=\353\341\035=\341\224\022=\366\317\r=\2658\013=\003\000\001=7\355\020=\215D\336<\002\334\022=\031 \022=\350\355\n=\362\325\347<gm\021=\262QF=\000\000\000\000\000\000\000\000\000\000\000\000\000\000\000\000\000\000\000\000\000\000\000\000\000\000\000\000\000\000\000\000\000\000\000\000\230\230\014=t1\237<;\3042;M\252\315;\000\000\000\000\360\010\020<\231\033\233<\317V^<\000\000\000\000\026\306\310<\000\000\000\000\252\317\005<R\013\366:\010\334\200<,\013\262<Ey\t=dp\302<\321]\341<\265O\253;\325\017\013;op\035:\000\000\000\000\337\264\222:\000\000\000\000\2239\2539\264\310\017<\364Qd<\005A\214<\367\260\033<lu\014<\372/\037<\"\265\214;5\177U<dU\022<fX[<\3009\245;\26062<\252\341*;Y7\3358\000\000\000\000I:\023=\000\000\000\000}\217\246<\000\000\000\000\000\000\000\000\203\'\307<\000\000\000\000\2751\027< \"\213<Eo\260<\317\207\371<\010i\336;\335G\244<\2468\030<fM\374;\346v\346;@2\237;\262\243\207;f4\216;W\337m<\276<e<\232\006j<\026\020\224<\331\'p<[\020J<1\313\027=\336($=\330\250#=\215m\017<@\354\020<k\347:<\251V6<\256:6<r9\353<\3454&<\303\030\010=9\347\312;\007\267\360;\316\227\231<\356\275\223<c\375\242<7\265\226<\010\272\210<d\341d<\267\036\255<\274\203\244<\003rR< \004\216<V\002\215<g\221\231<\346P\220<n\245\226<0\362p<G\361\216<\355>r<\234\347\030<<\242}<O\326\267<p?\225<\320&\202<\317bm<\361,\226<\353\177\235<\000\000\000\000\000\033\007;)\347);\000\000\000\000\000\000\000\000\000\000\000\000\340S\003;\000\000\000\0007\377\234;\005\210O<\352\tb9\r\356w;M\342=<\356k\':\007\241\2639\332\360\243;2\177J<;\334\242:\230\235\335<\000\000\000\000\200*\027;\000\000\000\000\000\000\000\000\000\000\000\000\000\000\000\000\000\000\000\000i\022\033;\363\273L;j]\226:W\310-<]\001\271<\220\357\241<+\312N<\323\177\312<\210\\\230<\263\032\235<\237\305\352<\350\024\344<\024T\250<\214/\245<\202\260G<w\204\014<\252\277f<*\223\223;\000\000\000\000C\004\214<\361\325\0269vS\2679\327\025\332<\000\000\000\000\000\000\000\000}\217\246<\000\000\000\000\000\000\000\000\203\'\307<\000\000\000\000h2\237<7\366\r=\255\177\224<\017\234\370<\030\331\037;\333\027\257<\031\254\335<+L\370<\004l\002=\317\343\333<qF\354<\263\333\370<\242Z\314<\313\324%<\036\214\205<\000*\242<;R`<\327\337\226<\206\335\205:\310(y:\243y\221:\013\240)<lv\304;\303\373\036<4\220\010<\003\364\027<GR3;\000\000\000\000%\234p:\323Ku<3\205\255;\323B\260;_\371\025<x)\031<\363\252\024<\026\362\003<\032\253\306;\013\014\r<\274\356\375;\222:\222<#\027!<\242\200\t<\230\234\005<\255\345 <\322\241w<\225\247\365;\217\351\371;\014L\022<B\353\237;\353\332\001<d\213\032<\273\214)<M\201\t<\263\232n<gm\021<\006\033\026<\000\000\000\000\000\000\000\000\000\000\000\000\000\000\000\000\000\000\000\000\000\000\000\000\000\000\000\000\000\000\000\000\000\000\000\000v\210.;$\306\336;\313\313v;3\353\351<\356k\':,\323,9\224\312s<\273^{<\013\033\204<xQ\252;\000\000\000\000\351\372\354<\245\333\316<\242\274\204<\335\241E<\307N0;\333\001\2569\000\000\000\000#\255\t;\326:\3129\360U\310:3\235\272:\257\347\370:\347\366\030<\206\0061<7\001\241;nx\036<\341\331\205<_4\006<\036\217J<\252\006D<{\316_<\375\200\234<\222\031s<\255\333\024=\322\331\217<\035|\234;\214B\3209\212?\3057\327\025\332<\000\000\000\000\000\000\000\000}\217\246<\000\000\000\000\000\000\000\000\203\'\307<\000\000\000\000\317\026\306<1\307\004=\3030\217<\243\226\370<\324f\231<\200\320\210<\213\270\334<SJ\362<\366\277\354<\317\343\333<\210\216\357<E{\336<M|\263<\316\372\225<\272\211\223<C\343\222<\363w\222<k|\221<H\314\310;\027\366\006;f\004\325;<S\200<\205@\023<P\365u<\242;i<)\336m<\236,q:\000\000\000\000\000\000\000\000\351\2001<K_\351;\372\006\307;\021F\017<\274\254\024<:}\013<)(\177<\022\373\036<x\002\027< \365!<\007\233\t=w\3549<0\356\t<\302\322.<\363\322*<\327j)<\261\366c<\361\242!<B\217E<\323\360\335;\204\\\025<\362\034I<e\344*<T\242\036<\277\304\336<W|\026<iJ\034<\202\353\205<\nh\301;\0022\330:\000\000\000\000\000\000\000\000\000\000\000\000\022\034\';\000\000\000\000\000\000\000\000]\013\232<\362\033\355;\005\330d<\220\342!;/\365\234;c\236\";7C\"=\3571\224<\035\214\0038\000\000\000\000C\356\'=\000\000\000\000\267e\2069AW\313:{\212\303;\340\356\022<4P\037<\2638a<wx\327;\245\201a<\325q,<cm\003<\016y\203<\265\025\232<\246\343\344<\255q\t=\003\317\224<0\332\237<\037\013\366<\270g\232<\236X\304;\355P\227:\306\364\3249\000\000\000\000\000\000\000\000\264\351\0049\262\021\366<\031z*:q\020a:\000\000\000\000\000\000\000\000\000\000\000\000}\217\246<\000\000\000\000\000\000\000\000\203\'\307<\000\000\000\000\255\227\246<\200\312\214<Nc\220<\256\032\370<6\334\237<eU\217<\372T\344<gI\357<\004:\341<\316\321\351<\200v\356<\304\231\327<\027,\377<\315\237\375<\373P\317<z\267\300<\223\346\250<#\300\212<\223\013o;V\352\240;\261\376\356;\342\031\222<\007\233:<\356\023\204<\315^l<\345\327u<\364\356\325<)\r\026<\217\210\037<\334|\223<%\314s<\273\2173<\003%T<\244\337V<\2361C<\2633\204<U\337C<H\227f<\237\237I<\302\025\215<U\204N<\252\376\202<\247\016\210<K\375]<WTt<\227\326^<^\302\226<n\014s<\314;j<&\032\255<K\302H<\037\t]<\3272{<T`o<\254\324M<\346\205><\000\000\000\000\311\201\251;Pi\242;Y\205*<\036\347\007:\000\000\000\000\272\347z:\000\000\000\000\017\023\226;\225V\260:\366y-<\271,\337;\331CS<\356k\247:lZ\221;X5\013<\325\306\217<\225o\2319E;\277<\000\000\000\000\324\253$<\215<\260;\321\370\232<n\330\202<\304\255-<=\373G<m\237\266<\312\324\264<6\034\r=\316\220\203<\331\324\267<\3717\210<\026-\333;\000\000\000\000O\020M:0Eg;\367U@:\266\0213:\306fz;\036\0277;\324*\353:\325\211\343;NeY;\200\356\"<\313\267$<\031\364^;N\311X<-Jf:\000\000\000\000I:\023=\000\000\000\000}\217\246<\000\000\000\000\000\000\000\000\203\'\307<\000\000\000\000\362Zr<\\\343\246<s\217b<b\353\367<7U\337;\010\230T<\240\277\357<\027M\373<\032\362\002=\210\017\272<<T\233<=\254\231<\2072r;\224\336s;\204F\204;\205\234\003;W;\t;\210m,;\300{e:\312W\221:\223\232\344:P\277S<^\237t<\220\340\223<\237\344\221<\333\024\223<\316Cb<\354\234$<\325\253\254<\210\326/<\214\010&<\212\351\313<\215^\313<\241\226\324<\021.\317<\304\026\270<O*\244<\250\243\324<\212\255\310<\354\026\375<4i\244<J(\306<\033\326\273<\304\374\304<0>\262<\035.\242<\322\327\320<\2245\332<\324y{<\252\354\307<\357\314\306<T\225\312<\347\344\272<oV\353<\360\272\314<X\207\270<\000\000\000\000\306\374N<\343N\275;\000\000\000\000\000\000\000\000\000\000\000\000\223}[<\000\000\000\000\227\355.<\366\'\232;\204n\016;\303\2136;\330\323\362;\356k\':\345\315+:x;X;\315\322\226<\000\000\000\000\000\000\000\000\255\005(=\000\000\000\000\252\264I<w\300j<\352\037o<\234\014\354<\033;\365<H$\353;*9\233<\260\200\016<A\224\226:\000\000\000\000\000\000\000\000\000\000\000\000o\245\365:\245\004\004;\000\000\000\000\000\000\000\000\362\220f;\267\305\223<\377V\023<\270T\374;T\301\307<UK\200<\r\306_;\336\203y<\036\204\225<R\242\207;\305\364\2759\000\000\000\000I:\023=\000\000\000\000\000\000\000\000Y\307\247=\000\000\000\000\203\'\307<\000\000\000\000\037\346Z<\245\030\331<\247\277\273<\000\201\367<\333c\253;\367.\300<\273\246\361<\264M\375<^\204\004==\363\317<\256\274\253<f4\216<\376hZ<\241v4<\303\2619<\205\270\357;\365\020\231;!.\024<\300{e;\310(\371:f\004\325;\316\232\200<u&u<\002\254k<i_e<l\236m<\0279\302<\352\366\036=\251\240\330<\355\213\021<\321\216\203<!`\235<\250\306\242<\207\025\231<\274^F<\307\330K<\271Qy<\034\271\204<\243\022\213<OK\205<\214M\263<(\177<<Oa\241<\317/\203<\010XZ<\266\254{<@\376\247<g\247J<\017\372\241<\0261K<\317\256\233<I\001y<9W\220<]\337\236<\253rW<\263\326\236<\000\000\000\000\000\000\000\000\000\000\000\000\000\000\000\000\000\000\000\000\314\213\271>\000\000\000\000\000\000\000\000\000\000\000\000bS\204;\030>\203:\232\201\3019pn\210:\356k\2479\262\241P;\255\025s;\032\265\234<\000\000\000\000\275J\343<\000\000\000\000\225\272\016;v\221\006<\346\321\320;Z_\301;\333\304%=\273\312\215<\007P\353<\000\000\000\000X\321\312:\000\000\000\000\000\000\000\000\000\000\000\000\000\000\000\000\311\202Z;\036\313\022<kk9<\3747\245<\300\030\315;\206?\263<\326F\235<\322\220\263: :U<)\337\206<\257\357_<\316\363\335;\000\000\000\000<\267\315;\215\341\0037\327\025\332<\000\000\000\000\000\000\000\000}\217\246<\000\000\000\000\000\000\000\000\000\000\000\000)\210K=\324\353\346;\001\004~<Il\265<{\007\367<\226\367\2428\350\244\266<a\252\266<\2775\257<\021\345\303<;\275\371<\272\273\010=\221\177\020=\355\325*<\357\3466<a\013N<o\322\375;?\204\355;\371\364\036<\320\034,<7\360\023<H\240J<\223\t7<v\307\214<H#\211<\306\216\207<\226A\211<;\231\340;\016\212<;\212\330\203<\001\014\227<\366\014\352:\315\242\300<\277\331\021=\366:\035=\002\2666=\352\332\n=\214>\342<w\315\037=\342-\"=< \342<\342\224\305<]\177*=\352\250\002=\2255(=I\205\037=\242\240\003=\031\374\020=\337\002\n=\310\347d<\3076\376<\252#\035=\350\226$=\261\311\016=\351\022\344<qQ3=w\315\030=\000\000\000\000L\205W<\350\322\330;\000\000\000\000\000\000\000\000\000\000\000\000q\230\247<\000\000\000\000\000\000\000\000\253j\353;s\250y=\200i\265:;H\360:\255\342\261;0[\201>\275\206s=!\323&<&uI;\000\000\000\000\000\000\000\000\365\200O=P\031\263<z\226\237<%O\367<\2512\023=$\204\255<\371g\235<\027\377\310;b\032W;\373\350\320:0\321\272;,\253B;~\306W;\221\321[< \315P<U\025\271;|\320\372;V\"\263;)\265V;L\007r;\333;\027;2\252\340:_\036\317:\312\245\247;!\002\"<\212p\001<\206Rd9\375\247\337:\000\000\000\000\000\000\000\000\000\000\000\000}\217\246<\000\000\000\000\034\230\033=\000\000\000\000\000\000\000\000\244w\334<\345\231/=\352\322`<\354\231\366<\261\251\2209d]E<#\374\303<\352/\034<\304F6<\316\321\351<\205\023\001=\260\345\007=\332\335\305<\373#\337<h\327\355<\013+Q<?\204m<\226\362\177<\320\034\254:be\344:\316by;\230\264\2669\272\317\2379\316\037/:\265|\032:\215$*::\017z:(?\353:A\372!:\000\000\000\000\000\000\000\000\004\213\215:r\356\325:\255\317\004;\216\032);\341\325\010;\355v\307:\247\231\023;*\375\004;v\262b;t/\234:\035ZL;\316s\305:8J\034;\014\301\362:sY\322:\242`\005;\323\252\366:\313$>:\352\264\370:/\005\366:ek#;t\027\001;R\032+; \331#;\214\252\370:\000\000\000\000\000\000\000\000\000\000\000\000\000\000\000\000\000\000\000\000\000\000\000\000\000\000\000\000\000\000\000\000\000\000\000\000\004>0:\350\024\313;@-\227:-\246\024;p~\222;\2244\301<\336gU;\320>w<\214-H;\000\000\000\000\316\036\037=\000\000\000\000\216\232\277<\364I>;\000\000\000\000\000\000\000\000\000\000\000\000\000\000\000\000|G\235;3\006\347;\324\222\230;\220\037\216;DBU<\365\370\016=Z\346x<k\246H<\3314S<\201\324\034<Ji\003=\000\000\000\000\274\335n<\235\370\262<\007j\257<\334\024\275;5eF<U\3710<\363M\351<\212i\317<\371\377(:\327\025\332<\000\000\000\000\000\000\000\000}\217\246<\000\000\000\000\000\000\000\000\203\'\307<\000\000\000\000;\222\016=2\216\000=h(\307<\0067\366<\362\350.=\202l\330<\336\006\234;\003N\376<g\220\220<\323F\217;\306_\n=Q\360\223<\347\330\372<l\356\022=RE\013=\005 \021=\302b\032=\005\350\373<\362\360$<\343|\260;\301\335\033;\366\215j<\223[ <\227i{<\353\232s<17o<\000\000\000\000\217\302V;\000\000\000\000\221g\345;\201\366\225<rd\032<\025\234?<|\322E<\326\3150</\251\"<\2440B<\0219C<\305\315k<GgT<reT<\213D%<\303\t\211<\213\224B<\316\037U<F\023s<\274\370\276<\031F;<\022s\204<N\3315<\027/R<\0068O<\037\005\201<\303\\n<d9B<fC\213<\000\000\000\000\000\000\000\000\000\000\000\000\000\000\000\000\000\000\000\000\000\000\000\000\000\000\000\000\000\000\000\000\000\000\000\000\031\036I<\321\352\246:\327:^:\025s\211;\000\000\000\000\265\200R;\256&z;\344\224\206<\022\313J<\000\000\000\000\032\363\003=\000\000\000\000\025[.;;V\242;\362}a;v\336\200;\256b\024<\000\000\000\000\000\000\000\000\374\320\223;\000\000\000\000\000\000\000\000\000\000\000\000O\326\330:\230VT;\022-+=\251|G=aO\273<\005\357!=\203\222\242<\354\221\245<E~.<Z.8;.\242I<tn\301;\326h\001<M\377\210<}\273\000:\260Jp8\000\000\000\000I:\023=\000\000\000\000\000\000\000\000Y\307\247=\000\000\000\000\203\'\307<\000\000\000\000\263kq<\204\025\277<@O\230<8\t\366<\375\261G<4\023\221<-\263\360<fM\374<\355\345\001=\000\000\000\000\000\000\000\000\000\000\000\000\035)/<n\001\013<\311!S<!\037y<&&\021<\327\337\026<i\327\013=\204\216\t=\242\314\351<dU^<\220\345\230<\342eq<,\372\211<\237\013\202<\000\000\000\000\23567;\031\260\035;\352\264C<?&\016<\211w\315<\244o\225<\206ZC<\277oD<\371vU<\020%\211<`\303W<9.\212<\364\256\257;1\242\245<\244w[<\2123A<\000\207a<i\237_<B\027J<\260\252\251<\276/\203<\025\340E<<mA<\2658\003=\304\322]<h\305N<\340\375_<\272\034^<a\354\206<\000\000\000\000\256Q\373;\000\000\000\000\000\000\000\000\000\000\000\000\000\000\000\000u\334\"<\000\000\000\000\000\000\000\0008\304d<\232\312/;\032\t\2059\004\201\214:\352F\321:\271~=;\335VN;u\317\202<\000\000\000\000\0037\326<\000\000\000\000t%\250;q\314m<=\316\304;7?6;\014OP<\'Jg<\032\235W<\2228\260<\252\021Q<\223?\305;\000\000\000\000\000\000\000\000\000\000\000\000\000\000\000\000\000\000\000\000*\245\371:t3\"</75<x\333\032=\262\366\212<\016\213\323;\272I_<\276\034\253<\2200M<\013\343\034<4lE=\000\000\000\000\363!M:\000\000\000\000\000\000\000\000\000\000\000\000}\217\246<\000\000\000\000\000\000\000\000\203\'\307<\000\000\000\000\2735\271<\247; =\335P\235<\326\340\365<\213\266\244<\232\231\236<?\343\305:\2313(;\211\300\300;\365\003\303;\360c\020<\030mN<\205\377\254<\236P\304<\307\305\314<\013\026\000=\334\271\031=E\214\027=P8\021=\317\253\035=Z:\016=E\023\204<\363\027\034<\247\"\213<\227zt<\352\233\207<\211AX=\016\341\371<g+?=\311B\355;\361T,<\0140\217<R\206W<S\254\022<\241\264\0239\305\207\264;\322\\\245<\360\257\322;~T\200;`\204|;\3642\220<\037:\204;MaX<P\266\271;\205\010\021<\002X\361;yuX<\023<\305;\336\022\252<\325\034\247;\005\251\344;\322\237\357;\234\333\035<\227\373\030<+\'\032;\353\2447;\000\000\000\000\362\036\313;\000\000\000\000\000\000\000\000\000\000\000\000\000\000\000\000\365pE=\000\000\000\000\000\000\000\000\213\253\212;3\332\306:\027\206\003:U\353\3339\356k\2479\000#\027;\022 \3428X\232\200<\273%l=\000\000\000\000\000\000\000\000\000\000\000\000\000\000\000\000\000\000\000\000\000\000\000\000\000\000\000\000\000\000\000\000\262\332`=\000\000\000\000\000\000\000\000\000\000\000\000\375 \206=\000\000\000\000\000\000\000\000\000\000\000\000\000\000\000\000\000\000\000\000\000\000\000\000\000\000\000\000F\'\032>\000\000\000\000\000\000\000\000\000\000\000\000\000\000\000\000\000\000\000\000\000\000\000\000zA\t=\000\000\000\000\000\000\000\000\327\025\332<\000\000\000\000\000\000\000\000}\217\246<\000\000\000\000\034\230\033=\000\000\000\000\000\000\000\000s\322\203<\237^B<u1l<U\313\365<x\256.=EYj<\311\377\010;\2313(;pj\373:BV\003<\243s\005<\302\326\311;\277\265k<1\277x<\377db<o\266\221<W;\211<4\327T<\237\247\354<\317\375\346<O9\315<\000\000\000\000uo\216<VSA</\207><\247\202F<\000\000\000\000\000\000\000\000\000\000\000\000\340m\367<\000\000\000\000\254\351\304<\001\026i<\240\310\241<\000\000\000\000e\033z<\316w\214;i0\220<\000\000\000\000E\233b;t\245\267<\276\342\323;\026\237\372;J\356\204;\000\000\000\000\000\000\000\000\025\323\n<\000\000\000\000\354\301\225<\000\000\000\000J\270A;J\2529<\377\302\312<\234\010%<\000\000\000\000\000\000\000\000\000\000\000\000\000\000\000\000\000\000\000\000\000\000\000\000\000\000\000\000\000\000\000\000\000\000\000\000\000\000\000\000\000\000\000\000\000\000\000\000b\\\0207\232\201A8\022#h:\000\000\000\000\000\204>8u\34648\364X\203<\000\000\000\000\000\000\000\000\255\005(=\000\000\000\000\000\000\000\000\000\000\000\000\000\000\000\000\000\000\000\000\000\000\000\000\000\000\000\000\000\000\000\000\000\000\000\000\000\000\000\000\000\000\000\000\000\000\000\000\000\000\000\000\000\000\000\000\000\000\000\000\000\000\000\000\000\000\000\000\000\000\000\000\000\000\000\000\000\000\000\000\000\000\000\000\000\000\000\000\000\000\000\000\000\000\000\000K\231n>\000\000\000\000\000\000\000\000\000\000\000\000\327\025\332<\000\000\000\000\000\000\000\000}\217\246<\000\000\000\000\034\230\033=\000\000\000\000\000\000\000\000\242F7;\036\216\020<\367\307\320<$a\365<c2#;\221B\371<\022\314\356<\027M\373<1x\003=\316\321\351<\344d\263<\210\220\366<+$\344<\373#\337<\266u\000=\220\235\262;\317\221\310;\022\302\314;\300{\3459\310(\3719\316b\3719\000\000\000\000md\355<\025J\253;\212\276o<\022k\030<\000\000\000\000\000\000\000\000\202\rZ>\000\000\000\000\000\000\000\000\000\000\000\000\000\000\000\000\000\000\000\000\000\000\000\000\000\000\000\000\000\000\000\000\000\000\000\000\000\000\000\000\000\000\000\000\000\000\000\000\000\000\000\000\000\000\000\000\000\000\000\000\001;\206<\000\000\000\000\000\000\000\000\000\000\000\000\000\000\000\000\000\000\000\000\000\000\000\000\000\000\000\000\000\000\000\000\000\000\000\000\000\000\000\000\000\000\000\000\000\000\000\000\000\000\000\000\000\000\000\000\000\000\000\000\000\000\000\000\000\000\000\000\000\000\000\000\000\000\000\000\000\000\000\000\000\000\000\000d\223\007:u\227\354:u_u;\356k\2479%\025\0108w*Q:\254\212 <\000\000\000\000E\357\354<\000\000\000\000\000\000\000\000\000\000\000\000\000\000\000\000\325AJ>j~\315;\000\000\000\000\000\000\000\000\000\000\000\000\000\000\000\000\000\000\000\000\000\000\000\000\000\000\000\000\000\000\000\000\000\000\000\000\000\000\000\000\000\000\000\000\000\000\000\000\000\000\000\000\000\000\000\000\000\000\000\000\000\000\000\000\000\000\000\000\000\000\000\000\000\000\000\000\000\000\000\000\023{9=\000\000\000\000\000\000\000\000\327\025\332<\000\000\000\000\000\000\000\000}\217\246<\000\000\000\000\000\000\000\000\203\'\307<\000\000\000\000V\250\240<\025\246\307<\204\321\300<%\212\364<\226\356%=j\343\321<-\263\360<gI\357<\271j\345<\3679\231<\253\213\206<\030mN<%Y$<\313\324%<V+\033<z\267@<\275\227\006<\364\320\261;Xm\017;\226\336\272:W\322O:}r?<\363\373\031<\2700\005<\365y\002<\255q\004<\000\000\000\000\000\000\000\000\000\000\000\000F\236\310;\236\000\210<+\220\341;\251\243U;\324\024\262:\000\000\000\000\365\241\343;\000\000\000\000\000\000\000\000\234b\232;\343\372t:\336\245\037<\226\000R;\255\0104<A\220W;0#\207;\032HQ;\315\316\275;y\\\366;\325\321\372:P\2403;ql_:\231\277\t;\021\253\266;|\n\223;\000\000\000\000\000\000\000\000\000\000\000\000B`H<\000\000\000\000\000\000\000\000\000\000\000\000\000\000\000\000\000\000\000\000\000\000\000\000\000\000\000\000\000\000\000\000\360\032\016:\335@a:\311\301\266;\000\000\000\000%\025\0108F\307g;kHy<\000\000\000\000\313\227\301<\000\000\000\000*b <\342\262S<\\g\003<\'\316J<\335\374~<\345W\331<\272^\333<\336\317\020<\000\000\000\000\r\270R;\200\333\202<\036\347\202;\263\305L<\241\340+<?\364\031<\277>\336;\233\t\347;\2676<<V\206H<\201\356\333;\234\335S<\341\307\306:\353\221\202;(\334j<\016\362\"<f\005\324;\307\266P9\256x\3177\000\000\000\000I:\023=\000\000\000\000}\217\246<\000\000\000\000\034\230\033=\000\000\000\000\000\000\000\000\331e\003= `\311<\211 \203<\266\\\364<\331&.=\272\264_<\240\277\357<SJ\362<\363!\311<@2\237<\302\323\211<\230\213G<\345\2455<\3652\027<-\200\313;\026\020\024<\n=\350;&R\201;\004$\327;\244\210\226;\205\025\007;\016]N<)\324\200<[\370\205<\332\335\212<\333,\207<#25;\201\274E;\002\215\237<U8S<\327j\031<\314.\201<xe\213<xo\211<\000\030/<\274;\247<\322\203v<-dM<a\2635<B\267l<\241\364\214<\036AV<<\005d<\022\252U<\2371]< \241x<\002\205l<2\261-<\233\213K<\035\202\000<\366\320T<\357\235z<%oh<y\225\214<Q\215*<\360\300-<\000\000\000\000\277\323\264;\000\000\000\000\000\000\000\000\240i\276;\000\000\000\000X\305/<\000\000\000\000\000\000\000\000\202\346v<\356_\013:\212\3629:pn\210;\356k\2479\253\344\347;\371\345\351;\\\321\305<\000\000\000\000E\357\354<\000\000\000\000\000\000\000\000\235x:<7\352\227;\325\336\264;\315\3037;\373]\265:\000\000\000\000\336\177\017;\216\310\322;\362\001\256;\341\253\201<*\\\262<\243\355\255;\315\264\306;\016\030\364;\025;\\;YS\310;\337&\325;\301I:<2QL<\317Ei<\376\231]<\225W\234<k\214.=B\370\367<O\315x<\375\365\030;$\30019\000\000\000\000I:\023=\000\000\000\000}\217\246<\000\000\000\000\000\000\000\000\203\'\307<\000\000\000\000\3450\227<{\366\277<\221\333\236<\\S\364<\271\211f<\303\037\236<Zc\201;\212(\204;j.\264;\315\266\376:\305\004/;i\272\251;\306\345\340;\222\023\034<\374\254U<\013+Q<\372\333\254<\355\032\316<fp\014=\312W\021=\001\311\005=\314Q\t=\017W\275<\201\017\375<\222\243\347<\2631\363<\270er<~s\253<s/\263<\314\345\217<\303:\'<\031O\277<\033\340\275<\376hm<\346\375\014<\034H\245<\2622\322<%\377U<u\220Q<_\013}<Fo\267<L-J<\226\276\311<>1\201<X\312\223<\264\275\232<\246\300\200<I\231Y<\327\363\363<\374\3274<\216eb<\273\324\232<`\361\214<\271\217\266<\251\325\'<\264m|<\000\000\000\000:\374\337;\361V\341;\213p\003=\322\257<;\000\000\000\000\000\000\000\000\000\000\000\000\3718\320<\243\251t;6\264F;\034CB;\0021\353<\345!{:[\"\335:\276b\'=\220.\213<\001i\2778\000\000\000\000\341\252\'=D\005\3557Tv\214<\033\311\224<x\307\211<f\234\307<\025\377\305<\367\224\325<\267\375\214<V|\263;\312&s:\2452\265:\000\000\000\000\000\000\000\000\243\177\262:\3149\225:\372\336\031:[\365\237:\242\305L;\204\232\341;A\245_<=n;</<=<o\267\005<\343\360|<\010\245c<\311\353\377<7q\215;\264\023\3039\000\000\000\000I:\023=\000\000\000\000}\217\246<\000\000\000\000\000\000\000\000\203\'\307<\000\000\000\000]:\232;\320\027\357;\307\254\211<\330\355\363<Z{\020=\351W\210<\311\377\210<\303-\225<\321\361\230<b\357\322<i.\353<\307\037\363<8Q\211<\340\203\236<W\207\241<\0008\330;\334Y\375;\007z\362;o\245\212;\nL\253;\301\335\233;~\237C<Wk@<\023^\026<\323\205\021<\336R\026<\275[);\202ZM:Z\2760:2\361\356;\375\362)</Q|<\363\351y<-\204e<GS]<\275An<\207\235h<\006gf<\225_i<\313\200\215<Dyk<llv<\375\ns<a6b<1fk<\363\275O<\312\201\365<E\203\227<\230\376B<\270\244u<f\300f<\010\327f<\312\233_<1R\211<\354Ca<\260\321@<\000\000\000\000\345\220\362;T\207\035:\000\000\000\000\000\000\000\000\000\000\000\000\252cs;\000\000\000\000\004\220\021;\352\360\252;l\037\024<7\244\022:\332{\3038\356k\247:\000\000\000\000Q\215\202<8O\311<\000\000\000\000\000\000\000\000\000\000\000\000\3230[=\263a\027<?\273\374;C\005\007<\307V><7x\"<\347c*<\222e+<\373RZ<3\231\000<\216=.<H\340Y<\2047c<\341\022E< \324*<f\036?<p\177S<\276\3718<\233\020\013<\361:C<\370\021<<\322\360*<\272 \373;\234\361\'<\261\3709<\000\000\000\000Fd\0273J\335\3266\000\000\000\000\000\000\000\000\350s\211=\000\000\000\000\000\000\000\000\000\000\000\000\203\'\307<\000\000\000\000\007\310\237<\004\263\234<+\356\206<\251\355\363<\007\276\211<\357\027}<^:\277<\364B\332<\227:\265<\316\321\351<\210\237\001=/\004\001=\203\232\367<Fn\361<bg\324<\234\236a<lgX<t\335w<v<\277;\244\210\226;*<\300;\205\336\000=p\"\277<:\231\030=^\226\034=\030\321$=\000\000\000\000\000\000\000\000\000\000\000\000\317\206\034=d\303\233=\3073\r=\336\363\301<p\2006<bz\303;\226\366\230;U\343%=\205\316\026<.\237%;\341\200\034<\326\177&=E<\316:F\247\332<\345y <\233y\320<\252D1<\316\220\232<\266\264*:\215P2=\003T\332;\205\001\021<H[x<\321s\310<\264]\001=\000\000\000\000\230JE=\000\000\000\000\000\000\000\000\000\000\000\000\000\000\000\000\000\000\000\000\000\000\000\000\000\000\000\000\000\000\000\000\000\000\000\000\371\220\366<\306\366\2047\247\215G9O\212\216:\000\000\000\000Xd\3727\341\274x9\354-\242<\273%l=\000\000\000\000\000\000\000\000\000\000\000\000\000\000\000\000\000\000\000\000\000\000\000\000\000\000\000\000\000\000\000\000\000\000\000\000\375\352\263<R5\306<\263\346\002=\000\000\000\000\000\000\000\000\265\021\332<s\213U=\023\210\345<\000\000\000\000\000\000\000\000vo\310<\000\000\000\000\000\000\000\000\000\000\000\000\000\000\000\000\000\000\000\000\000\000\000\000\303\206-=\341^&<\033\344\3234\000\000\000\000\327\025\332<\000\000\000\000\000\000\000\000}\217\246<\000\000\000\000\000\000\000\000\203\'\307<\000\000\000\000K\023\022=<\344\236<n\0328<P\271\363<\342\271\365;3\241)<\302\037\232<\353+\217<%\233\177<\033\033\261<\214+\202<C\270P<\025\3719<\351\232\326;\313\331_;\205\234\203:\223\346\2509\210m\2549+\375\030;\027\366\006;W\322\317:\241\3402=!\246\254<{\342\371<\365 \363<I\246\374<\000\000\000\000\000\000\000\000\000\000\000\000\206\357\340;\000\000\000\000\354\354\000<\364\210\357;Z>O<\000\000\000\000\306\322S<t\245\225<\"\001\216;\000\000\000\000\324\371a<\341\365p<cj\200;5\345\222<V\230J;\330\225\033<R\0016<\326\223\323;\224<\230<\023\273\216<\003\363\246<N^$<\222U9;*T8;\'\021L<\000\000\000\000\000\000\000\000\000\000\000\000\000\000\000\000\000\000\000\000\000\000\000\000\000\000\000\000\000\000\000\000\000\000\000\000\000\000\000\000\000\000\000\000\000\000\000\000\242X/:\027\206\003:_|\213;\356k\2479\221l\206;\r\207\";\331\271e<\305F$;\000\000\000\000\204\267 =\000\000\000\000\002\271\'<\247d;<\000\000\000\000\000\000\000\000\000\000\000\000\236k\034<\000\000\000\000-\227=<\000\000\000\0003\235:;5Yi<G\340o=\022\014\302=J\215[<mx\036;\000\000\000\000l`\231;\235\373\016;2;\353;\010m\311;E\275\215;\257Ex;\255\333\224<\021\311\004;\363;\r=\264\004.8\253\305\r9\000\000\000\000I:\023=\000\000\000\000\000\000\000\000Y\307\247=\000\000\000\000\000\000\000\000)\210K=\236\322\353<\232j:=u\214\303<6\032\363<\\\tc<?\313\333<\327\215\3638P\'\0009\242\026\0069\323F\017<\302\323\t<\020\236\t<:\235\006=\367E\017=\355\270\017=!\030\336<8 S;\376\030\014=\300{\3459\210\342\025=~|\004=o:}<5\2071<=v:<:\3328<\027\021<<\207\270N:\000\000\000\000\000\000\000\000\347\243A<\000\000\000\000[\020\r<!\243)<iX\003<\371\273\236;\'\210\010<\254 9<\2709\356;\254+I<\357\261\\<\213\313Z<k\226\033<\306Y\010<\271P\324;b\262\356;\257\276 <\027!><\331\224\340;\177\303m<r\343\233;}\266z<n\351\335;\324\201\340;\374Md<|\233\323;@s\363;\000\000\000\000\000\000\000\000\000\000\000\000\000\000\000\000\000\000\000\000\000\000\000\000\000\000\000\000\000\000\000\000\000\000\000\000\275\t\204<\305\327R9\347\311e9C\211~;\356k\2479\001\004O;r\200\212:\036\316W<\000\000\000\000\202j\301<\000\000\000\000\300\t!<6t\035<\240\231\222;`\301\007<5+\233;\350$\231;\364\2157<\027\217\241<\242\373\261<\334P0<c\374\332<\000\000\000\0004\321C=k\261\357<&\034\316<\000\000\000\000\342\374\020=\000\000\000\000\000\000\000\000\000\000\000\000\000\000\000\000\000\000\000\000\200\253\021<\000\000\000\000\000\000\000\000\310g\261<\257\302`:\312!\2379\000\000\000\000\000\000\000\000\350s\211=\000\000\000\000\000\000\000\000\034\230\033=\000\000\000\000\000\000\000\000\257J\003<3\240P<~\276\241<$\206\362<\213\027\230<\330\201\233<h\361\353<zL\371<1x\003=\321\020\271<\334L\262<\377\337\252<\027,\177<\016\010\200<\002\035o<7\005\353;\211P\001<\340@\375;f\233x;>\305\201;\224G\214;\356\177\200:\000\000\000\000\336\236r:\227\027c:\234 V:\232s\210<\355s\245<\335f\016<\000\000\000\000\000\000\000\000\n\355\006;7\351o;c{\236;\224R\341;\004n\262;\207\000W;dv\265;\207\210\254;S%\257<\256^\024;\3005\330;w\014Z;\241,\356;&]\244;\320[\337;g\375\237;b4\230;\000\000\000\000\345\351\225;j/\232;@\231\310;m\324\220;\310\233v<p\260\325;\177V\240;\000\000\000\000\000\000\000\000\000\000\000\000\000\000\000\000\000\000\000\000\000\000\000\000\000\000\000\000\000\000\000\000\000\000\000\000\000\000\000\000/\360\3436\200i5:\371\177|;\000\000\000\000\267\037\3148\022 b9B\270\204<\000\000\000\000\000\000\000\000\255\005(=\000\000\000\000\000\000\000\000\000\000\000\000Tsy=\000\000\000\000\204\200\352=\262\332\340<\000\000\000\000\000\000\000\000\305\375\217<\000\000\000\000\000\000\000\000\000\000\000\000\000\000\000\000\000\000\000\000\000\000\000\000\000\000\000\000\000\000\000\000\000\000\000\000\000\000\000\000\000\000\000\000\000\000\000\000\000\000\000\000\000\000\000\000\000\000\000\000\000\000\000\000:\300\303:o\023\272:\327\025\332<\000\000\000\000\000\000\000\000}\217\246<\000\000\000\000\000\000\000\000\203\'\307<\000\000\000\000V\324\234<M\256\212<|Q\216<\013\245\361<9\315\340<\222\310\230<\034\034\325:\342?\320:pj\373:\207\364N;\256\006u;f4\216;\244\277\001<YR\022<\207\376\020<d\330\351<r2\354<\243\314\320<\213\253\004=\374O\006=\3000\364<\203i\235;\361\351=<s\320r<\257\275n< \305g<\000\000\000\000\000\000\000\000\000\000\000\000\340mw<\000\000\000\000\273b*<\027Y\261<`\311\272<\200\350\356<\276E\247<2{\333<?D\313<vU\004=-E\007<\366Y\340<%I\277<\325\276\222<\035\036\351<\250\016\320<\302\222i<\3751\316<\245\201\377<\354\301\025<m\t\231<F\240 =T\035\265<\252,\207=\032\332\022<\032$\332<gD\350<\000\000\000\000\000\000\000\000\000\000\000\000\000\000\000\000\000\000\000\000\000\000\000\000\000\000\000\000\000\000\000\000\000\000\000\000\000\000\000\000t\365\0279\212\3629:L:m;\000\000\000\000|\365C7\332\360\243;\021\333\227<\273%\354;\000\000\000\000\000\000\000\000\271\312?=\233\311h<\235\275X<\021\265\310;\374?4<XT\332<\034\260\207<F\333n<j]\226;\322\233\306:1\341!<\311\021\271:\000\000\000\000\334\377\241:\000\000\000\000\000\000\000\000\000\000\000\000l\021\276;\017\344\204<\013x\033<V \205;BW\344<*\206\241<\365w8<\313$\336<>\377S=\263\276 3`\341\3258\327\025\332<\000\000\000\000\000\000\000\000}\217\246<\000\000\000\000\000\000\000\000\203\'\307<\000\000\000\000g\212\027<\016\244\021<[\326\220<\374\216\361<<>\332;\344\001\226<\341\335\331<\366>\315<\250R\315<=\341\335<\272\005\322<n\003\323<\273\035\361<\203\260\003=\354\212\014=\220\235\262;^\237\243;\364\320\261;\362\360$<V\352 <\375\2450<\301N\204<j\021\207<L*\220<us\206<\3320\214<\000\000\000\000\000\000\000\000\000\000\000\000Q\367\337;9\374\214<Dy|<\026\017y<\017X\024<\334\261 :b\372W;\355\2349<\256o\007<\261EG<\233\313\035;\254m\274<\302\217t;[\216\211<\261y\302;Bs\014<\013\363\214<5\222\036<y\205\002<CA\006=\226\225\272;\237\360\010<(z\002<\351\005\203<\354\352\"<\253\026\317:*`c<\000\000\000\000\000\000\000\000\255\277 <\000\000\000\000\000\000\000\000\000\000\000\000\356\200\370;\000\000\000\000\000\000\000\000v\210.;K\000:<T? <\331_K<\356k\';\354\253\324<\370\216\010=\205T\211<\314i\2349CV\350<\000\000\000\000\014\240G:\267\212o<EZa<\236\032s<\372\352\232<\332\323~<\367\022\315<v\311u<\0235\212<\330\221\r<\231\354\362;d\242&;\215\232F:\306\334\021:\376\nQ:?\233\274:\310\025u;~\377z;\021\333\244;\315\343T<\3478w<j\230M<\367\262\364;\324#y<\303\371\"<\201\'2<*E\251<\2755\361<\000\000\000\000\000\000\000\000\000\000\000\000}\217\246<\000\000\000\000\000\000\000\000\000\000\000\000)\210K=H\313\237<=!\360<\206d\253<\tf\361<c\252\331<\n\203\276<\332\375\352<\242J\363<\350E\370<\251\314\355<\372\366\377<%\342\003=\316\025\326<h\265\252<\266u\200<Y\320\237<;R`<CC\034< a\033<\2104\337;\337A\246;L\261N<\002\\V<\314\271\205<h\343\200<\260\'\204<\362\024\222<J\023\230<\266\024\356<\007>\027<\027\000&<\246\t\253<N\251\273<Dy\300<\025*\317<\202\\\301<\201F\252<\325\026\317<\331L\341<\233J\361<\\G\246<\275=\311<\361\366\272<H\035\313<fn\270<2\254\250<\211\324\341<W\240\315<\r\254M<\242\\\256<\322\322\324<\220;\300<C8\261<\202r\343<\376\222\317<\231\001\262<\000\000\000\000\311\335\017<M\373@;\000\000\000\000g\242!:\000\000\000\000\236*\225;\000\000\000\000\210^2;2o\304;\236~\3729\264\231M9\004\201\214:\000\000\000\000\213/.:\006\337\231<L\020=<\000\000\000\000\267\330\353<\000\000\000\000\317\330\2009\247r\335;\014\315b<.\007|<\3648\252<\362\'~<R\033\321<r \363<^\307\331<\202\027\030<\227\325\223:\000\000\000\000\000\000\000\000\000\000\000\000\000\000\000\000\032\305\002<\263A\030<\251\201\312;\030k\365;\305\225\206;\352g\t<\317\310\261;j\233\027<\033^N<\013\236\311;LR\035=\225\023p;\"\372\2569\000\000\000\000I:\023=\000\000\000\000}\217\246<\000\000\000\000\000\000\000\000\203\'\307<\000\000\000\000\341a0<\335\323X<\363\310\202<n`\361<DZ\212:\013\354q<I3\254<]6\261<\211\300\300<\362\273\372<\311\353\n=\'\245\021=[w\350<Ze\n=T\317\024=\013+\321<\244@\007=F\325\022=+\375\230;\343|\260;\204h\337;]\325\004<\t\273\007<\034\365\013<R\211\010<\307\323\014<\016x\210:\177(:;\273O`;\323\316\265;,6\226;^\217#<\372}\034<\306\000\031<\020Z\230;)G\262;n\257\373;\306_\371;B(\300;\306\r#<\203\"\027<\016\220\341;\377\2033<]b\262;\026\230\323;\272c\347;Y\240\016<(\346\256;\302]5<j\245\272;\225\305\021<yW\346;\023\216\017<Ie4<\016U\271;\003N\310;\000\000\000\0004=*;\000\000\000\000\035\327\037;\000\000\000\000\000\000\000\000\026b\004;\000\000\000\000\000\000\000\000\270\223E<\032\001h;n\364J;\257vz;g4f;qy\2749xL\337:\377o\272<~(\351<\000\000\000\000\'&\252<\000\000\000\000\362}\022<\212\302\023=\310g\250<\000\000\000\000\000\000\000\000\000\000\000\000\000\000\000\000\000\000\000\000\220\270\332;\242\323\207;\261\337\207;\000\000\000\000c\337m<C\256\177<N\257f;\244\317\357;\022E\337<\000\000\000\000\200\277\307<\004zC;UTN<X\2644<\346\204\"=\260\370\020<!\322~<\322\254\2216\003\230\2069\327\025\332<\000\000\000\000\000\000\000\000}\217\246<\000\000\000\000\034\230\033=\000\000\000\000\000\000\000\000\000\000\000\000\000\000\000\000\270\010\216<_\207\360<\000\000\000\000\375,\200<\372T\344;\266I\360;pj\373;\027\301\366<\262\243\007=f4\016=\177\002\375<\343\251\016=T\317\024=,\366\005=[m\026=\215\221\031=^;\216<Gm\232<=\221\232<\330b\244<\273I\256<\007\303\302<KR\305<?\252\305<\000\000\000\000\000\000\000\000\000\000\000\000\254\217\372;\021\312~<$\205\267<\375;\264<*\231g<\3642\234;Jh!<\036\211\324<5\014o<\037\270\203<s3\325;\203\245\330<f\001\025<u\202\261<7\270 <\034D:<|3y<\343\245S<j\277\373;d\031\032=/WM<\222\311\266<\215\001B<kcy<\200\031W<sr\365;z\240\002<\000\000\000\000\251\261\273;\000\000\000\000\000\000\000\000\000\000\000\000\000\000\000\000\000\000\000\000\000\000\000\000F\033\332=\0215\300<\347?\205=\334\243\302;o\376\';\255\342\261;(\230\016=\326\235\276<T\030\215<\306\233\334;\000\000\000\000\346>\024=\375\020P8\342\264\000;9&\005;\000\000\000\000\000\000\000\000\000\000\000\000\000\000\000\000\000\000\000\000\336\020J<@\342z<\n\177\007=!\351P<\222\325\211<\331\236\202<\212\243\340;\330\036-<|\332\220<x\306\002<\330K\232<\223\261\234<\340\271o<\037\357\334<P0\223<\264\311\016<\315HT;`\250?<\333Tc:\302(\2239\000\000\000\000\000\000\000\000\000\000\000\000}\217\246<\000\000\000\000\034\230\033=\000\000\000\000\000\000\000\000\000\000\000\000\000\000\000\000\376\037\254<\177q\360<\000\000\000\000\353\322\300<;s\316<\246B\331<_R\343<\205\320\352;\205\023\001<\345R\007<8Q\t=k\333\032=W\207!=\013\035\033<\310-.<\364\3201<U1\374<i\350\010=K\010\t=qa\200;\200\305];\343L\274;\241\230\253;\000q\262;)\300*<\274>\207;\033\001B;^1\354;\263<\025:\204\335&<\372\003\200<a3\252<\212\n\315<\202!\236<\316\311m<\306;\273<\260L\277<\034\237\363<\220\266D<N\231\263<\265Cy<\220\316\264<\242,\225<\307\331\220<\260@\224<\020\211\305<\000\022\314;Zv\231<P\274\231<W;\254<|\341\253<\302\272\264<\241Y\310<\336h\250<\000\000\000\000\006\\w;\372H\212:\000\000\000\000\000\000\000\000\000\000\000\000\000\000\000\000\000\000\000\000\301\217\177;\231\242;;\353\342\202:*\230\014:\231\313\200;\345!{:HZu<\340\232j;>\n\315<\004u\346<V\251^<\000\000\000\000B\343\023;$\240\177<\223\243\214<\345e\\<\335\034N<\"\3224;St\007<7\021\017<\304W\203<\227\"\034<\000\000\000\000\000\000\000\000\000\000\000\000\000\000\000\000\000\000\000\000\000\000\000\000\002A\344;\222\321\004<&3\210<\253\334\346<\251+\227<w{u<2\377\200;\323w4<\211\371\345<Q\212\362<\301\350\036<\02571:\327\025\332<\000\000\000\000\000\000\000\000}\217\246<\000\000\000\000\000\000\000\000\203\'\307<\000\000\000\000\325\354\250<\244%\234<$\t\230<\365\276\357<Z\235\355;\331\363\202<\273\246\361<\003N\376<G\376\003=\253\371\312<Z\264\237<{x\210<,\211\231<\313\324%<\211\266\035<!\003\215<\371B&<\265\312\016<Xm\017<\374\241\317;W\322\317;\344\303\304<\262%\214<\255G\304<\016{\272<\036\330\274<\000\000\000\000\235ZC;\000\000\000\000\333\254\320;P2T<\242\265v<\207\254\230<\204\\\215<\331\316\201<r\217\233<T\241\331<\373\245\243<\325F\232<\200E]<\320\370\246<4\251\220<}\202\324<M\273\221<\221\270\216<Fm\314<\373\213\254<\000Z\220<=\370\242<;\034\223<\363u\240< j\251<N,\230<o\014\214<X:\177<\033u\242<\000\000\000\000\202\374\005<\000\000\000\000\201\253Q<\000\000\000\000\000\000\000\000\000\000\000\000\000\000\000\000\000\000\000\000\374\354s<\335j\353:\023W\\;Nn\026=&\253p<|\226s9\337\211c;$[\315<k6S<\000\000\000\000\000\000\000\000\334-*=\360\263\263<=x\262:\000\000\000\000\000\000\000\000\266o\272:\000\000\000\000\000\000\000\000\000\000\000\000\000\000\000\000\000\000\000\000\000\000\000\000\000\000\000\000\205\024\257;\366/<<\346\220\024=\317\026\023=\207\270?<(2\031=\303\004\014=*\340\017< \033\375;\276k\274<\212\247\324;\014j\202<\370\3365:\310=2:(\301\3558\327\025\332<\000\000\000\000\000\000\000\000}\217\246<\000\000\000\000\000\000\000\000\203\'\307<\000\000\000\000[M%<\302\371\241<\375S\275<6e\357<\354\230\226<\003>\301<S\352\330;WB\330;\363!\311;_\271\374<\311\353\n=\'\245\021=\2072\362<\013\342\017=\320\355\362<\323V\243<8 S<`4\267;\231\331\355<\"\037\001=4=\001=\001\032\225<\000\253\243< \365\320<\244\340\322<P\216\323<\000\000\000\000\000\000\000\000\000\000\000\000\344\'W;\001\210\273;\325\331\230<\'\221\335<\003\331\222<9\350\215<\022\202\224<\177\212\252<o?\245<\217K\222<\010\367\010=\250\030\261<\364\260\223<\377\311\236<g\340\235<\033\324|<\003>\241<\324\277\231<\201%\211<<}\325<\200\213\201<b\317\230<_#\231<\354D\234<\364\r\355<\036#\224<\265y\261<\000\000\000\000\000\000\000\000\000\000\000\000\000\000\000\000\000\000\000\000\000\000\000\000\000\000\000\000\000\000\000\000\334\n\326<4\240\274<\3177;:\347\311e9\373_\275:\356k\247:\037\270\253;\370\262T<r\352<<\\\024\212:\364\232\350<\000\000\000\000\000\000\000\000\036\201\363;\275\246\356;\311\030s;\373\321\260;+\225\025<6\234\240<\374\311\206<\004\223C<\343\236\345;\214>2<\001#D<\372#\337;(\347\312<\275g\212<\371\331\261<\010\'\251<B\022\343<\035:\026<\344\250\357;I\013Z<\000\211\275;\000\000\000\000\000\000\000\000\000\000\000\000\327Q\260;D\024\364;k\325\2209\327\025\332<\000\000\000\000\350s\211=\000\000\000\000\000\000\000\000\034\230\033=\000\000\000\000\000\000\000\000\303q\306< \013\004=X-\270<\273I\357<\232\323~<<>\303<a\252\266;\342?P;\242\026\206:\255\035\257;\224C\003;k}7:\240\'\007=m\246\362<\234b\360<\352<\025=\367\251\037=?h*=\300{\345<\202_\361<ZH\375<5Y\'9\265\316\n:\027N\3259\362\022\2579\364\366\2759.\373B<5yW<\037\321g<\000\000\000\000\000\000\000\000\r)\216;O\234\365;\014!$<r\203`<\275\355 